<unk>	0
<s>	0
</s>	0
<PAD>	0
<UNK>	0
▁t	-0
he	-1
▁a	-2
in	-3
▁w	-4
▁s	-5
▁o	-6
er	-7
▁the	-8
▁h	-9
en	-10
▁b	-11
re	-12
ou	-13
nd	-14
it	-15
▁to	-16
▁m	-17
ed	-18
ing	-19
▁c	-20
▁f	-21
at	-22
▁and	-23
▁of	-24
on	-25
is	-26
ll	-27
▁he	-28
▁be	-29
▁ha	-30
▁n	-31
ar	-32
or	-33
▁in	-34
as	-35
▁th	-36
▁p	-37
es	-38
▁d	-39
an	-40
ot	-41
om	-42
▁l	-43
▁was	-44
▁her	-45
ent	-46
ld	-47
▁I	-48
ve	-49
ly	-50
▁g	-51
le	-52
se	-53
ver	-54
▁e	-55
▁had	-56
ch	-57
im	-58
▁not	-59
st	-60
ce	-61
ion	-62
ut	-63
▁M	-64
▁re	-65
ow	-66
ould	-67
al	-68
ir	-69
gh	-70
▁y	-71
ter	-72
▁wh	-73
ne	-74
▁as	-75
▁it	-76
▁for	-77
et	-78
ith	-79
ay	-80
▁she	-81
▁that	-82
ro	-83
ain	-84
id	-85
▁you	-86
▁C	-87
her	-88
▁“	-89
▁with	-90
▁A	-91
▁an	-92
ad	-93
ri	-94
▁S	-95
ct	-96
▁at	-97
▁su	-98
▁on	-99
▁his	-100
▁H	-101
▁u	-102
ght	-103
very	-104
▁have	-105
▁W	-106
▁him	-107
▁all	-108
ee	-109
▁T	-110
▁but	-111
pp	-112
▁Mr	-113
▁so	-114
th	-115
▁con	-116
▁An	-117
ess	-118
us	-119
▁been	-120
▁Anne	-121
qu	-122
ill	-123
oo	-124
ere	-125
li	-126
pt	-127
ore	-128
▁whi	-129
▁st	-130
am	-131
▁could	-132
if	-133
▁E	-134
▁mu	-135
▁L	-136
▁were	-137
all	-138
▁very	-139
ur	-140
▁ne	-141
ble	-142
▁by	-143
▁which	-144
lf	-145
ation	-146
▁sh	-147
ic	-148
▁The	-149
▁is	-150
▁com	-151
end	-152
▁de	-153
▁k	-154
.”	-155
ect	-156
▁would	-157
▁She	-158
ge	-159
ak	-160
▁ex	-161
▁no	-162
ell	-163
rom	-164
▁me	-165
our	-166
ss	-167
▁B	-168
▁they	-169
apt	-170
self	-171
▁them	-172
ant	-173
est	-174
aptain	-175
▁man	-176
ome	-177
lli	-178
▁al	-179
▁Captain	-180
▁or	-181
lliot	-182
▁Elliot	-183
▁see	-184
ul	-185
▁from	-186
▁Mrs	-187
▁do	-188
▁whe	-189
art	-190
ous	-191
▁sa	-192
ard	-193
▁their	-194
▁any	-195
▁more	-196
ady	-197
▁ag	-198
▁sp	-199
ight	-200
▁ch	-201
orth	-202
▁than	-203
ong	-204
▁per	-205
▁r	-206
▁who	-207
ood	-208
ort	-209
ure	-210
ance	-211
now	-212
▁se	-213
ough	-214
ate	-215
itt	-216
ther	-217
ac	-218
▁pre	-219
▁there	-220
▁v	-221
able	-222
hing	-223
▁ac	-224
ence	-225
▁pro	-226
▁must	-227
les	-228
▁my	-229
ast	-230
▁qu	-231
worth	-232
ame	-233
▁li	-234
▁one	-235
▁being	-236
▁He	-237
,”	-238
entworth	-239
▁know	-240
▁Wentworth	-241
ity	-242
out	-243
ind	-244
one	-245
ven	-246
▁am	-247
ost	-248
▁only	-249
▁en	-250
ary	-251
ving	-252
and	-253
ment	-254
▁dis	-255
▁other	-256
▁much	-257
wn	-258
ved	-259
il	-260
▁po	-261
reat	-262
▁im	-263
▁this	-264
▁af	-265
▁such	-266
ink	-267
▁fe	-268
▁when	-269
ook	-270
red	-271
ather	-272
▁le	-273
ive	-274
way	-275
▁Lady	-276
▁comp	-277
ry	-278
ite	-279
▁should	-280
▁good	-281
▁un	-282
▁think	-283
▁part	-284
age	-285
alk	-286
▁int	-287
▁R	-288
ittle	-289
fer	-290
▁little	-291
gro	-292
▁said	-293
▁It	-294
ab	-295
▁Mus	-296
▁Musgro	-297
▁Ch	-298
ound	-299
▁how	-300
▁own	-301
▁what	-302
▁tim	-303
eel	-304
arles	-305
▁might	-306
med	-307
la	-308
ert	-309
ake	-310
▁go	-311
ally	-312
▁j	-313
▁will	-314
ke	-315
os	-316
ra	-317
▁ad	-318
▁if	-319
▁again	-320
▁Charles	-321
od	-322
▁herself	-323
▁up	-324
▁feel	-325
ear	-326
▁did	-327
ings	-328
nder	-329
▁never	-330
op	-331
ness	-332
▁ab	-333
▁time	-334
▁every	-335
▁some	-336
▁we	-337
sell	-338
▁Rus	-339
ought	-340
▁Russell	-341
▁fri	-342
fore	-343
▁too	-344
other	-345
▁bet	-346
▁att	-347
alter	-348
▁ob	-349
▁can	-350
▁wor	-351
ick	-352
▁great	-353
ft	-354
▁Sir	-355
▁are	-356
▁now	-357
iss	-358
▁look	-359
▁well	-360
▁your	-361
ose	-362
urn	-363
▁Walter	-364
nt	-365
ide	-366
▁app	-367
▁Mary	-368
▁happ	-369
me	-370
▁friend	-371
ett	-372
ru	-373
▁nothing	-374
▁tw	-375
ci	-376
ist	-377
▁soon	-378
ag	-379
ath	-380
ree	-381
▁Musgrove	-382
per	-383
ions	-384
um	-385
ves	-386
hed	-387
▁long	-388
▁say	-389
▁even	-390
ily	-391
ish	-392
▁ind	-393
▁most	-394
ol	-395
▁cons	-396
fect	-397
ng	-398
sp	-399
ible	-400
▁father	-401
ress	-402
▁fir	-403
▁Miss	-404
▁inter	-405
▁after	-406
au	-407
ful	-408
▁fa	-409
▁under	-410
▁before	-411
ies	-412
aint	-413
▁imp	-414
isa	-415
ward	-416
ap	-417
ice	-418
▁rec	-419
ouisa	-420
▁first	-421
ust	-422
ning	-423
▁Louisa	-424
ade	-425
ond	-426
ways	-427
▁quite	-428
▁two	-429
leas	-430
ount	-431
▁always	-432
ine	-433
ner	-434
▁They	-435
▁over	-436
ach	-437
▁like	-438
▁ar	-439
▁though	-440
▁thought	-441
▁without	-442
are	-443
▁out	-444
lay	-445
▁br	-446
ouse	-447
ried	-448
ister	-449
▁exp	-450
▁has	-451
▁Bath	-452
▁pleas	-453
▁sister	-454
eth	-455
ise	-456
sent	-457
▁into	-458
ious	-459
▁But	-460
▁acqu	-461
ig	-462
ud	-463
ife	-464
▁gr	-465
▁us	-466
room	-467
▁mar	-468
▁rep	-469
▁made	-470
▁about	-471
▁young	-472
ass	-473
int	-474
▁himself	-475
lt	-476
oll	-477
vill	-478
▁Har	-479
▁day	-480
▁off	-481
▁beg	-482
thing	-483
▁seemed	-484
▁Harvill	-485
ever	-486
▁des	-487
ire	-488
led	-489
▁mom	-490
▁last	-491
▁moment	-492
liz	-493
▁acc	-494
abeth	-495
lizabeth	-496
ave	-497
▁fam	-498
▁hop	-499
▁cont	-500
▁pers	-501
▁having	-502
?”	-503
ild	-504
lie	-505
ject	-506
lace	-507
ross	-508
▁talk	-509
▁walk	-510
▁acquaint	-511
▁Elizabeth	-512
▁U	-513
▁may	-514
▁wom	-515
▁make	-516
▁better	-517
▁D	-518
een	-519
mir	-520
▁dec	-521
▁year	-522
get	-523
▁Th	-524
▁ret	-525
anc	-526
▁way	-527
▁just	-528
▁same	-529
▁supp	-530
ations	-531
▁Y	-532
ack	-533
omet	-534
▁home	-535
▁many	-536
▁found	-537
▁however	-538
ens	-539
erc	-540
roft	-541
▁Croft	-542
ertain	-543
▁gl	-544
▁sm	-545
▁felt	-546
▁want	-547
arm	-548
▁lo	-549
▁somet	-550
▁family	-551
un	-552
▁away	-553
▁ever	-554
▁house	-555
ck	-556
igh	-557
own	-558
▁dif	-559
pperc	-560
▁give	-561
▁belie	-562
ppercross	-563
cc	-564
▁P	-565
ced	-566
ined	-567
▁Hen	-568
▁manner	-569
▁Uppercross	-570
▁K	-571
its	-572
less	-573
▁rem	-574
▁sure	-575
▁Harville	-576
▁feelings	-577
ser	-578
▁op	-579
etta	-580
▁done	-581
▁poss	-582
rietta	-583
▁present	-584
▁Henrietta	-585
oy	-586
ered	-587
▁room	-588
yn	-589
ied	-590
▁ri	-591
ated	-592
ynch	-593
▁its	-594
aking	-595
▁Kell	-596
▁still	-597
▁Kellynch	-598
ody	-599
mith	-600
▁ass	-601
▁inc	-602
ction	-603
iness	-604
▁come	-605
▁those	-606
▁enough	-607
▁(	-608
▁N	-609
ang	-610
enw	-611
▁pr	-612
icul	-613
osed	-614
▁mor	-615
miral	-616
▁Benw	-617
▁Smith	-618
▁Benwick	-619
▁underst	-620
mp	-621
ord	-622
▁ent	-623
▁str	-624
wards	-625
▁back	-626
▁dist	-627
▁mind	-628
eed	-629
▁our	-630
ither	-631
▁hand	-632
yme	-633
▁let	-634
▁vis	-635
▁Lyme	-636
▁came	-637
gether	-638
▁woman	-639
mb	-640
▁Ad	-641
▁har	-642
ished	-643
▁Clay	-644
ention	-645
▁return	-646
▁Admiral	-647
arly	-648
ener	-649
▁kne	-650
▁occ	-651
▁going	-652
▁heard	-653
most	-654
▁consid	-655
lic	-656
body	-657
ened	-658
spect	-659
▁call	-660
▁pass	-661
▁upon	-662
▁There	-663
▁perfect	-664
ull	-665
▁mat	-666
▁reg	-667
▁hour	-668
▁happy	-669
▁party	-670
▁another	-671
!”	-672
▁few	-673
▁char	-674
▁down	-675
▁exce	-676
▁knew	-677
▁then	-678
▁interest	-679
▁something	-680
▁acquaintance	-681
ange	-682
▁gent	-683
▁hope	-684
▁mean	-685
▁child	-686
▁rather	-687
ie	-688
ty	-689
▁You	-690
▁bec	-691
▁end	-692
▁almost	-693
▁ey	-694
▁pe	-695
▁ser	-696
▁half	-697
▁seen	-698
▁wish	-699
▁gener	-700
▁years	-701
▁morning	-702
aps	-703
▁sc	-704
ared	-705
fort	-706
haps	-707
▁spo	-708
▁F	-709
▁O	-710
ited	-711
▁hear	-712
▁count	-713
▁person	-714
ween	-715
▁exc	-716
▁inv	-717
▁sub	-718
▁yet	-719
ourse	-720
▁hard	-721
▁word	-722
▁heart	-723
▁shall	-724
▁while	-725
▁certain	-726
▁evening	-727
▁ev	-728
▁here	-729
▁inst	-730
▁others	-731
▁together	-732
hi	-733
den	-734
ged	-735
ked	-736
ught	-737
▁add	-738
▁eng	-739
▁nat	-740
▁sat	-741
▁spe	-742
riage	-743
▁spir	-744
▁where	-745
▁compan	-746
▁between	-747
em	-748
irc	-749
▁gi	-750
▁pl	-751
ince	-752
▁res	-753
acter	-754
▁circ	-755
▁conf	-756
▁form	-757
▁rece	-758
▁turn	-759
▁obser	-760
▁ought	-761
▁right	-762
▁differ	-763
▁indeed	-764
▁character	-765
▁_	-766
hen	-767
▁saw	-768
▁sur	-769
ately	-770
▁gone	-771
▁gentle	-772
du	-773
sw	-774
ret	-775
▁tr	-776
vant	-777
▁ide	-778
▁suf	-779
light	-780
▁life	-781
▁once	-782
▁sens	-783
▁understand	-784
ase	-785
sel	-786
ided	-787
ousin	-788
▁answ	-789
▁best	-790
▁comm	-791
▁conc	-792
▁dear	-793
▁meet	-794
▁near	-795
▁till	-796
▁short	-797
AP	-798
ER	-799
APT	-800
▁CH	-801
▁bl	-802
APTER	-803
ances	-804
▁left	-805
▁love	-806
▁take	-807
ollect	-808
▁agree	-809
▁known	-810
▁place	-811
▁cousin	-812
▁CHAPTER	-813
▁perhaps	-814
▁anything	-815
ue	-816
▁Her	-817
▁ext	-818
▁inf	-819
▁old	-820
▁thr	-821
ently	-822
▁kind	-823
▁poor	-824
▁side	-825
▁cried	-826
▁believe	-827
bt	-828
xt	-829
iet	-830
not	-831
val	-832
lied	-833
▁less	-834
selves	-835
ial	-836
man	-837
old	-838
ren	-839
ired	-840
▁sec	-841
▁use	-842
▁list	-843
▁wife	-844
▁visit	-845
▁appear	-846
▁letter	-847
▁possible	-848
oth	-849
ived	-850
sequ	-851
vers	-852
▁car	-853
▁ill	-854
▁sit	-855
▁deal	-856
▁full	-857
▁circum	-858
▁friends	-859
▁particul	-860
▁G	-861
ual	-862
▁In	-863
▁Hay	-864
▁fort	-865
▁head	-866
▁hands	-867
▁leave	-868
▁these	-869
▁Hayter	-870
▁really	-871
▁consequ	-872
▁circumst	-873
▁certainly	-874
▁perfectly	-875
Oh	-876
ers	-877
ign	-878
ably	-879
oubt	-880
▁new	-881
▁tru	-882
▁This	-883
▁name	-884
▁pret	-885
▁among	-886
▁least	-887
▁whole	-888
▁cannot	-889
▁course	-890
▁looked	-891
▁mother	-892
▁object	-893
▁suffer	-894
▁account	-895
ms	-896
hat	-897
row	-898
ten	-899
▁wr	-900
ause	-901
laim	-902
▁And	-903
▁put	-904
▁each	-905
▁find	-906
▁high	-907
▁next	-908
▁prop	-909
▁sort	-910
▁stay	-911
▁tell	-912
▁since	-913
▁thing	-914
▁world	-915
▁strong	-916
▁comfort	-917
▁spirits	-918
▁pleasure	-919
▁Musgroves	-920
isf	-921
▁cl	-922
aken	-923
ason	-924
augh	-925
ised	-926
ople	-927
vour	-928
▁idea	-929
▁obli	-930
▁sett	-931
▁passed	-932
iv	-933
omm	-934
ents	-935
owed	-936
▁equ	-937
▁opp	-938
▁care	-939
▁foll	-940
▁point	-941
▁hardly	-942
▁people	-943
pr	-944
▁wa	-945
here	-946
medi	-947
▁act	-948
▁min	-949
▁nor	-950
ility	-951
▁both	-952
▁pain	-953
▁rest	-954
▁warm	-955
▁three	-956
▁satisf	-957
▁respect	-958
▁agreeable	-959
▁everything	-960
el	-961
ix	-962
▁How	-963
ments	-964
▁disp	-965
▁does	-966
▁glad	-967
▁imag	-968
▁Place	-969
▁minut	-970
▁expect	-971
▁seeing	-972
▁brother	-973
▁company	-974
▁feeling	-975
▁consider	-976
▁themselves	-977
eek	-978
ory	-979
ude	-980
usb	-981
▁If	-982
▁el	-983
ense	-984
▁dre	-985
allis	-986
▁week	-987
ending	-988
usband	-989
▁begin	-990
▁doubt	-991
▁surpr	-992
▁Wallis	-993
▁immedi	-994
▁remain	-995
▁subject	-996
▁afterwards	-997
lu	-998
cri	-999
une	-1000
▁No	-1001
▁We	-1002
ient	-1003
reet	-1004
term	-1005
▁che	-1006
▁get	-1007
ition	-1008
▁opin	-1009
▁prom	-1010
▁husband	-1011
▁through	-1012
▁children	-1013
ib	-1014
te	-1015
day	-1016
eep	-1017
ior	-1018
ult	-1019
cess	-1020
mber	-1021
▁His	-1022
▁adm	-1023
▁sent	-1024
▁whom	-1025
▁marry	-1026
itation	-1027
▁change	-1028
▁contin	-1029
▁determ	-1030
▁either	-1031
▁convers	-1032
▁country	-1033
▁general	-1034
▁received	-1035
▁recollect	-1036
up	-1037
▁aff	-1038
▁far	-1039
▁ref	-1040
iting	-1041
ledge	-1042
owing	-1043
▁eyes	-1044
▁fine	-1045
▁began	-1046
▁small	-1047
aughter	-1048
▁attach	-1049
▁coming	-1050
▁former	-1051
▁wanted	-1052
▁brought	-1053
▁manners	-1054
▁gentleman	-1055
▁determined	-1056
▁consequence	-1057
),	-1058
ors	-1059
▁wo	-1060
alry	-1061
ower	-1062
used	-1063
▁anx	-1064
▁set	-1065
▁ten	-1066
cious	-1067
itted	-1068
itude	-1069
ually	-1070
▁dire	-1071
▁prev	-1072
▁read	-1073
alrymp	-1074
▁given	-1075
▁impro	-1076
▁state	-1077
▁favour	-1078
▁reason	-1079
▁talked	-1080
▁Dalrymp	-1081
▁delight	-1082
▁daughter	-1083
▁happiness	-1084
ott	-1085
herd	-1086
over	-1087
pend	-1088
▁hon	-1089
▁rel	-1090
ingly	-1091
pherd	-1092
▁conne	-1093
▁spoke	-1094
▁affect	-1095
▁answer	-1096
▁comple	-1097
▁myself	-1098
▁wonder	-1099
▁replied	-1100
▁towards	-1101
▁Shepherd	-1102
▁X	-1103
aut	-1104
ern	-1105
iew	-1106
ple	-1107
oice	-1108
▁bus	-1109
▁deg	-1110
▁dra	-1111
▁men	-1112
▁mis	-1113
▁When	-1114
▁able	-1115
▁situ	-1116
▁went	-1117
▁often	-1118
▁persu	-1119
▁assure	-1120
▁called	-1121
▁engage	-1122
▁looking	-1123
▁obliged	-1124
▁conversation	-1125
▁‘	-1126
act	-1127
eal	-1128
ken	-1129
cept	-1130
empt	-1131
▁Cam	-1132
▁ear	-1133
▁val	-1134
▁yes	-1135
asion	-1136
▁cond	-1137
▁else	-1138
▁fell	-1139
▁gave	-1140
▁open	-1141
▁reme	-1142
▁hours	-1143
▁quest	-1144
▁worth	-1145
▁Camden	-1146
▁matter	-1147
▁proper	-1148
▁decided	-1149
▁whether	-1150
Yes	-1151
app	-1152
ark	-1153
fic	-1154
▁aw	-1155
▁bo	-1156
▁es	-1157
ceed	-1158
onth	-1159
▁bad	-1160
▁cle	-1161
▁ste	-1162
anger	-1163
ident	-1164
▁disc	-1165
▁prob	-1166
▁self	-1167
iously	-1168
▁claim	-1169
▁doing	-1170
▁speak	-1171
▁regard	-1172
▁walked	-1173
▁wished	-1174
▁against	-1175
▁fortune	-1176
▁mention	-1177
▁thinking	-1178
▁Dalrymple	-1179
▁immediately	-1180
av	-1181
ene	-1182
hip	-1183
joy	-1184
ager	-1185
olut	-1186
▁din	-1187
▁met	-1188
▁wis	-1189
ended	-1190
▁Hall	-1191
▁lady	-1192
▁prof	-1193
▁view	-1194
ession	-1195
▁enjoy	-1196
▁natur	-1197
▁taken	-1198
ference	-1199
▁advant	-1200
▁pretty	-1201
▁express	-1202
▁marriage	-1203
▁returned	-1204
▁sensible	-1205
▁attention	-1206
▁situation	-1207
▁therefore	-1208
▁acquainted	-1209
II	-1210
No	-1211
air	-1212
ile	-1213
uri	-1214
use	-1215
▁St	-1216
ures	-1217
wing	-1218
▁est	-1219
▁lad	-1220
aring	-1221
duced	-1222
▁case	-1223
▁hint	-1224
▁tast	-1225
▁told	-1226
▁wind	-1227
▁early	-1228
▁descri	-1229
▁ladies	-1230
▁longer	-1231
▁necess	-1232
▁forward	-1233
▁instant	-1234
▁minutes	-1235
▁carriage	-1236
▁distress	-1237
▁beginning	-1238
▁different	-1239
▁considered	-1240
lp	-1241
sh	-1242
so	-1243
but	-1244
ued	-1245
▁To	-1246
bour	-1247
iled	-1248
oint	-1249
▁sil	-1250
▁sor	-1251
tered	-1252
▁arri	-1253
▁diff	-1254
▁grat	-1255
▁help	-1256
▁past	-1257
▁asked	-1258
▁influ	-1259
▁month	-1260
▁neigh	-1261
▁night	-1262
▁quiet	-1263
▁excell	-1264
▁honour	-1265
▁nature	-1266
▁because	-1267
▁business	-1268
▁complete	-1269
▁question	-1270
▁neighbour	-1271
▁attachment	-1272
▁circumstances	-1273
bb	-1274
The	-1275
irl	-1276
ock	-1277
ool	-1278
uth	-1279
▁gu	-1280
aged	-1281
alth	-1282
atch	-1283
enty	-1284
fter	-1285
▁abs	-1286
▁cal	-1287
▁eye	-1288
▁try	-1289
ached	-1290
eared	-1291
eness	-1292
▁conv	-1293
▁days	-1294
▁girl	-1295
▁need	-1296
▁real	-1297
▁stru	-1298
▁added	-1299
▁bring	-1300
▁equal	-1301
▁intro	-1302
▁sever	-1303
▁taste	-1304
▁Crofts	-1305
▁degree	-1306
▁likely	-1307
▁saying	-1308
▁things	-1309
▁opinion	-1310
▁talking	-1311
▁difficul	-1312
▁appearance	-1313
▁engagement	-1314
▁particular	-1315
ip	-1316
▁J	-1317
aid	-1318
mpl	-1319
ons	-1320
oss	-1321
ific	-1322
inci	-1323
know	-1324
onel	-1325
ting	-1326
yond	-1327
▁beh	-1328
▁cur	-1329
▁hum	-1330
▁jud	-1331
▁unf	-1332
erick	-1333
▁incl	-1334
▁mist	-1335
olonel	-1336
▁compl	-1337
▁eager	-1338
▁intim	-1339
▁occup	-1340
▁sight	-1341
▁super	-1342
▁words	-1343
▁worse	-1344
▁making	-1345
▁regret	-1346
rederick	-1347
▁married	-1348
▁suppose	-1349
▁satisfied	-1350
gg	-1351
of	-1352
You	-1353
acy	-1354
ept	-1355
ery	-1356
ety	-1357
uct	-1358
▁ef	-1359
▁fl	-1360
▁nur	-1361
ption	-1362
▁bear	-1363
▁door	-1364
▁face	-1365
▁play	-1366
▁requ	-1367
▁susp	-1368
itting	-1369
ottage	-1370
▁ready	-1371
▁usual	-1372
▁beyond	-1373
▁danger	-1374
▁dinner	-1375
▁health	-1376
▁listen	-1377
▁living	-1378
▁taking	-1379
▁recover	-1380
▁settled	-1381
▁occasion	-1382
▁surprise	-1383
▁Frederick	-1384
▁advantage	-1385
▁conscious	-1386
▁knowledge	-1387
And	-1388
ace	-1389
ove	-1390
▁As	-1391
▁jo	-1392
imes	-1393
outh	-1394
▁ast	-1395
▁bre	-1396
▁ele	-1397
▁fix	-1398
▁got	-1399
▁lar	-1400
▁par	-1401
▁pur	-1402
▁sea	-1403
▁ter	-1404
arter	-1405
ounds	-1406
▁curi	-1407
▁enqu	-1408
▁forg	-1409
▁four	-1410
▁true	-1411
▁alone	-1412
▁cheer	-1413
▁match	-1414
▁means	-1415
▁whose	-1416
▁direct	-1417
▁princi	-1418
▁recomm	-1419
▁turned	-1420
▁window	-1421
▁within	-1422
▁Colonel	-1423
▁meeting	-1424
▁natural	-1425
▁neither	-1426
▁walking	-1427
▁believed	-1428
▁superior	-1429
▁excellent	-1430
;”	-1431
to	-1432
we	-1433
ank	-1434
ber	-1435
for	-1436
oot	-1437
▁Sh	-1438
▁ap	-1439
aded	-1440
iles	-1441
ying	-1442
▁air	-1443
▁arr	-1444
▁boy	-1445
▁eas	-1446
▁fin	-1447
▁ins	-1448
▁pra	-1449
ating	-1450
ience	-1451
osity	-1452
ready	-1453
▁That	-1454
▁lear	-1455
▁live	-1456
▁mere	-1457
▁seem	-1458
▁Their	-1459
▁aston	-1460
▁sorry	-1461
▁women	-1462
osition	-1463
▁assist	-1464
▁fellow	-1465
▁second	-1466
▁spoken	-1467
▁already	-1468
▁anybody	-1469
▁conduct	-1470
▁pleased	-1471
▁appeared	-1472
▁handsome	-1473
▁speaking	-1474
▁influence	-1475
▁understood	-1476
▁particularly	-1477
▁understanding	-1478
og	-1479
vo	-1480
ze	-1481
▁V	-1482
hes	-1483
ler	-1484
men	-1485
rop	-1486
yle	-1487
amed	-1488
erty	-1489
look	-1490
reme	-1491
ring	-1492
ured	-1493
▁bel	-1494
▁dut	-1495
▁fre	-1496
▁pol	-1497
▁pri	-1498
▁saf	-1499
▁tri	-1500
▁unc	-1501
ively	-1502
where	-1503
▁What	-1504
▁book	-1505
▁evil	-1506
▁expl	-1507
▁none	-1508
▁plac	-1509
▁remo	-1510
▁took	-1511
▁used	-1512
enance	-1513
idence	-1514
iments	-1515
▁After	-1516
▁beaut	-1517
▁bless	-1518
▁exert	-1519
▁indif	-1520
▁large	-1521
▁lived	-1522
▁style	-1523
▁value	-1524
▁voice	-1525
ination	-1526
▁acknow	-1527
▁common	-1528
▁depend	-1529
▁entire	-1530
▁except	-1531
▁giving	-1532
▁notice	-1533
▁tenant	-1534
▁engaged	-1535
▁extreme	-1536
▁remember	-1537
▁supposed	-1538
▁delighted	-1539
eng	-1540
mor	-1541
oom	-1542
the	-1543
wed	-1544
▁Su	-1545
ased	-1546
ched	-1547
oney	-1548
pped	-1549
▁bar	-1550
▁low	-1551
▁son	-1552
aught	-1553
aving	-1554
ender	-1555
ities	-1556
▁also	-1557
▁fall	-1558
▁hist	-1559
▁lost	-1560
▁tone	-1561
ctions	-1562
etting	-1563
itable	-1564
▁decla	-1565
▁dread	-1566
▁exact	-1567
▁hoped	-1568
▁occur	-1569
▁power	-1570
▁quick	-1571
▁sense	-1572
▁solic	-1573
▁terms	-1574
▁Street	-1575
▁disapp	-1576
▁import	-1577
▁cousins	-1578
▁drawing	-1579
▁finding	-1580
▁imagine	-1581
▁serious	-1582
▁expected	-1583
▁pleasant	-1584
▁probably	-1585
▁Harvilles	-1586
▁generally	-1587
▁sometimes	-1588
▁suffering	-1589
▁circumstance	-1590
rie	-1591
ted	-1592
▁On	-1593
▁So	-1594
come	-1595
cted	-1596
dden	-1597
rave	-1598
uild	-1599
▁One	-1600
▁civ	-1601
▁cor	-1602
▁inn	-1603
▁sch	-1604
anged	-1605
ouble	-1606
usion	-1607
▁eleg	-1608
▁fair	-1609
▁keep	-1610
▁kept	-1611
▁repe	-1612
▁seat	-1613
morrow	-1614
▁charm	-1615
▁const	-1616
▁extra	-1617
▁judge	-1618
▁offer	-1619
▁pride	-1620
▁connex	-1621
▁effect	-1622
▁enquir	-1623
▁forget	-1624
▁imposs	-1625
▁months	-1626
▁concern	-1627
▁concert	-1628
▁hearing	-1629
▁sisters	-1630
▁waiting	-1631
▁disposed	-1632
▁entirely	-1633
▁observed	-1634
▁curiosity	-1635
▁difficult	-1636
▁recommend	-1637
su	-1638
ub	-1639
▁1	-1640
ans	-1641
der	-1642
iod	-1643
oun	-1644
▁At	-1645
▁Do	-1646
▁My	-1647
Well	-1648
ames	-1649
hood	-1650
ides	-1651
iety	-1652
onet	-1653
reed	-1654
▁ago	-1655
▁art	-1656
▁ash	-1657
▁mod	-1658
ained	-1659
emper	-1660
inary	-1661
inter	-1662
ising	-1663
otion	-1664
oured	-1665
▁fart	-1666
▁fore	-1667
▁late	-1668
▁prep	-1669
▁safe	-1670
▁sick	-1671
▁vain	-1672
▁wait	-1673
▁House	-1674
▁contr	-1675
▁incre	-1676
▁loved	-1677
▁meant	-1678
▁times	-1679
▁youth	-1680
fulness	-1681
ibility	-1682
looking	-1683
▁attent	-1684
▁caught	-1685
▁compre	-1686
▁period	-1687
▁tender	-1688
▁Cottage	-1689
▁anxious	-1690
▁farther	-1691
▁history	-1692
▁impress	-1693
▁proceed	-1694
▁reached	-1695
▁resolut	-1696
▁servant	-1697
▁listened	-1698
▁extremely	-1699
▁completely	-1700
▁profession	-1701
▁description	-1702
mm	-1703
pe	-1704
ape	-1705
avy	-1706
ead	-1707
ict	-1708
omp	-1709
uck	-1710
vey	-1711
▁ce	-1712
akes	-1713
ancy	-1714
fast	-1715
full	-1716
hile	-1717
ingu	-1718
king	-1719
raid	-1720
vice	-1721
▁avo	-1722
▁div	-1723
▁enc	-1724
▁esc	-1725
▁fut	-1726
▁hab	-1727
▁hig	-1728
▁hur	-1729
iling	-1730
mploy	-1731
ortun	-1732
▁calm	-1733
▁card	-1734
▁cold	-1735
▁drew	-1736
▁fact	-1737
▁town	-1738
▁vent	-1739
orough	-1740
▁Every	-1741
▁admir	-1742
▁appro	-1743
▁aware	-1744
▁break	-1745
▁creat	-1746
▁deser	-1747
▁desir	-1748
▁liked	-1749
▁money	-1750
▁proof	-1751
▁round	-1752
▁share	-1753
▁stand	-1754
▁table	-1755
▁truth	-1756
ishment	-1757
▁accept	-1758
▁afraid	-1759
▁agreed	-1760
▁behind	-1761
▁belong	-1762
▁claims	-1763
▁exceed	-1764
▁highly	-1765
▁nearly	-1766
▁streng	-1767
▁sudden	-1768
▁temper	-1769
▁trying	-1770
uildings	-1771
▁allowed	-1772
▁meaning	-1773
▁staying	-1774
▁support	-1775
▁answered	-1776
▁followed	-1777
▁kindness	-1778
▁opportun	-1779
▁smallest	-1780
▁affection	-1781
▁attending	-1782
▁continued	-1783
▁impossible	-1784
▁countenance	-1785
It	-1786
hy	-1787
tw	-1788
But	-1789
ian	-1790
obb	-1791
odg	-1792
hend	-1793
like	-1794
pted	-1795
race	-1796
unic	-1797
▁bes	-1798
▁cap	-1799
▁dri	-1800
▁mer	-1801
▁pat	-1802
▁rej	-1803
▁und	-1804
▁unw	-1805
▁var	-1806
▁why	-1807
ardon	-1808
atter	-1809
fully	-1810
ified	-1811
ondon	-1812
▁Cobb	-1813
▁Here	-1814
▁Such	-1815
▁With	-1816
▁cred	-1817
▁decl	-1818
▁deep	-1819
▁easy	-1820
▁fear	-1821
▁foot	-1822
▁grie	-1823
▁lodg	-1824
▁priv	-1825
▁soci	-1826
▁stri	-1827
ealous	-1828
terday	-1829
▁Great	-1830
▁allow	-1831
▁clear	-1832
▁fully	-1833
▁girls	-1834
▁looks	-1835
▁refle	-1836
▁watch	-1837
▁London	-1838
▁attend	-1839
▁convey	-1840
▁employ	-1841
▁future	-1842
▁glance	-1843
▁nobody	-1844
▁remark	-1845
▁street	-1846
▁struck	-1847
▁ashamed	-1848
▁attempt	-1849
▁collect	-1850
▁exactly	-1851
▁getting	-1852
▁justice	-1853
▁knowing	-1854
▁prevent	-1855
▁suspect	-1856
▁trouble	-1857
▁communic	-1858
▁distingu	-1859
▁extraord	-1860
▁interval	-1861
▁property	-1862
▁yourself	-1863
▁agitation	-1864
▁instantly	-1865
▁necessary	-1866
▁persuaded	-1867
▁yesterday	-1868
▁difference	-1869
▁friendship	-1870
▁introduced	-1871
▁comfortable	-1872
▁consciousness	-1873
▁neighbourhood	-1874
He	-1875
ia	-1876
ks	-1877
ma	-1878
arr	-1879
ash	-1880
inc	-1881
ont	-1882
ony	-1883
res	-1884
unt	-1885
▁em	-1886
▁ma	-1887
▁ro	-1888
▁ru	-1889
▁ut	-1890
airs	-1891
aper	-1892
hens	-1893
ical	-1894
land	-1895
peci	-1896
uded	-1897
weet	-1898
▁asc	-1899
▁due	-1900
▁eld	-1901
▁emb	-1902
▁hor	-1903
▁pub	-1904
▁une	-1905
▁unp	-1906
ellig	-1907
ering	-1908
ommod	-1909
rance	-1910
right	-1911
▁cour	-1912
▁dine	-1913
▁duty	-1914
▁earn	-1915
▁furn	-1916
▁sake	-1917
▁sing	-1918
▁summ	-1919
▁thir	-1920
leness	-1921
▁along	-1922
▁appar	-1923
▁conce	-1924
▁fixed	-1925
▁incon	-1926
▁indul	-1927
▁nurse	-1928
▁offic	-1929
▁reply	-1930
▁rooms	-1931
▁smile	-1932
▁sweet	-1933
▁toler	-1934
▁tried	-1935
ficient	-1936
▁became	-1937
▁become	-1938
▁especi	-1939
▁forgot	-1940
▁happen	-1941
▁itself	-1942
▁observ	-1943
▁severe	-1944
▁slight	-1945
together	-1946
▁baronet	-1947
▁besides	-1948
▁calling	-1949
▁command	-1950
▁greater	-1951
▁improve	-1952
▁instead	-1953
▁moments	-1954
▁princip	-1955
▁society	-1956
ification	-1957
▁improved	-1958
▁intellig	-1959
▁strength	-1960
▁breakfast	-1961
▁enjoyment	-1962
▁everybody	-1963
▁mentioned	-1964
▁especially	-1965
▁invitation	-1966
▁interesting	-1967
▁opportunity	-1968
▁extraordinary	-1969
Mr	-1970
My	-1971
Th	-1972
cul	-1973
ley	-1974
oud	-1975
oul	-1976
rew	-1977
rud	-1978
set	-1979
▁sy	-1980
ages	-1981
ging	-1982
irth	-1983
ling	-1984
teen	-1985
that	-1986
▁All	-1987
▁aut	-1988
▁inj	-1989
▁ner	-1990
▁pay	-1991
▁six	-1992
▁suc	-1993
▁wid	-1994
epend	-1995
ested	-1996
iment	-1997
itely	-1998
omest	-1999
osing	-2000
▁anim	-2001
▁bene	-2002
▁dign	-2003
▁five	-2004
▁heir	-2005
▁hold	-2006
▁luck	-2007
▁mort	-2008
▁navy	-2009
▁nice	-2010
▁pity	-2011
▁plan	-2012
▁rich	-2013
▁sail	-2014
▁sche	-2015
action	-2016
▁amuse	-2017
▁avoid	-2018
▁begun	-2019
▁board	-2020
▁concl	-2021
▁dress	-2022
▁earli	-2023
▁miles	-2024
▁reach	-2025
▁sound	-2026
▁spend	-2027
▁stood	-2028
▁thank	-2029
▁truly	-2030
arteret	-2031
▁accomp	-2032
▁afford	-2033
▁around	-2034
▁eldest	-2035
▁placed	-2036
▁public	-2037
▁spirit	-2038
▁spring	-2039
▁arrange	-2040
▁confess	-2041
▁earnest	-2042
▁growing	-2043
▁leaving	-2044
▁letters	-2045
▁removal	-2046
▁succeed	-2047
▁wishing	-2048
▁Carteret	-2049
▁accommod	-2050
▁admitted	-2051
▁bringing	-2052
▁directly	-2053
▁occupied	-2054
▁personal	-2055
▁promised	-2056
▁remained	-2057
▁Buildings	-2058
▁desirable	-2059
▁surprised	-2060
▁altogether	-2061
▁comprehend	-2062
▁disappoint	-2063
▁exceedingly	-2064
▁difficulties	-2065
,’	-2066
aw	-2067
ps	-2068
—“	-2069
ane	-2070
enc	-2071
ier	-2072
ify	-2073
oor	-2074
orn	-2075
ray	-2076
umn	-2077
ump	-2078
you	-2079
▁Oh	-2080
▁ir	-2081
▁ve	-2082
anci	-2083
arce	-2084
ates	-2085
hest	-2086
iful	-2087
inth	-2088
olog	-2089
wise	-2090
▁age	-2091
▁bro	-2092
▁bur	-2093
▁mot	-2094
▁mus	-2095
▁num	-2096
▁pen	-2097
▁rev	-2098
▁run	-2099
▁sol	-2100
▁sto	-2101
▁tre	-2102
▁van	-2103
▁wel	-2104
▁wit	-2105
ality	-2106
gence	-2107
irley	-2108
itten	-2109
mouth	-2110
ndeed	-2111
orses	-2112
uring	-2113
▁Your	-2114
▁dare	-2115
▁fond	-2116
▁hast	-2117
▁hers	-2118
▁hill	-2119
▁join	-2120
▁prot	-2121
▁rank	-2122
▁shut	-2123
aining	-2124
arcely	-2125
course	-2126
ferior	-2127
ousand	-2128
ressed	-2129
▁While	-2130
▁Winth	-2131
▁death	-2132
▁eight	-2133
▁hints	-2134
▁invol	-2135
▁order	-2136
▁seems	-2137
▁spite	-2138
▁start	-2139
▁yours	-2140
omestic	-2141
▁apolog	-2142
▁autumn	-2143
▁chance	-2144
▁credit	-2145
▁pardon	-2146
▁prefer	-2147
▁report	-2148
▁school	-2149
▁silent	-2150
▁twenty	-2151
▁useful	-2152
▁winter	-2153
▁wishes	-2154
▁Shirley	-2155
▁altered	-2156
▁anxiety	-2157
▁declare	-2158
▁dignity	-2159
▁elegant	-2160
▁exclaim	-2161
▁observe	-2162
▁silence	-2163
▁turning	-2164
▁weather	-2165
▁written	-2166
▁Winthrop	-2167
▁constant	-2168
▁creature	-2169
▁domestic	-2170
▁happened	-2171
▁inferior	-2172
▁lodgings	-2173
▁occurred	-2174
▁opinions	-2175
▁pleasing	-2176
▁repeated	-2177
▁required	-2178
▁scarcely	-2179
▁thousand	-2180
▁direction	-2181
▁gentlemen	-2182
▁returning	-2183
▁confidence	-2184
▁resolution	-2185
▁acknowledge	-2186
▁considering	-2187
▁differently	-2188
▁inclination	-2189
▁intercourse	-2190
▁satisfaction	-2191
We	-2192
_,	-2193
dd	-2194
She	-2195
ili	-2196
ils	-2197
ilt	-2198
mas	-2199
oic	-2200
par	-2201
rig	-2202
ues	-2203
▁Dr	-2204
▁XX	-2205
▁kn	-2206
▁mo	-2207
▁ra	-2208
▁te	-2209
amma	-2210
ater	-2211
gate	-2212
iest	-2213
ises	-2214
lish	-2215
ular	-2216
▁For	-2217
▁ask	-2218
▁dep	-2219
▁dro	-2220
▁fit	-2221
▁ine	-2222
▁neg	-2223
▁tot	-2224
ading	-2225
essed	-2226
inced	-2227
ision	-2228
isper	-2229
olute	-2230
▁West	-2231
▁caut	-2232
▁cord	-2233
▁evid	-2234
▁exam	-2235
▁fail	-2236
▁feat	-2237
▁grad	-2238
▁land	-2239
▁mine	-2240
▁move	-2241
▁poet	-2242
▁pres	-2243
▁rain	-2244
▁rene	-2245
▁scru	-2246
▁ship	-2247
▁sigh	-2248
▁sinc	-2249
▁subm	-2250
▁sugg	-2251
▁suit	-2252
▁work	-2253
ancied	-2254
ancing	-2255
arrass	-2256
ashion	-2257
iality	-2258
ledged	-2259
mation	-2260
resent	-2261
twenty	-2262
▁appre	-2263
▁books	-2264
▁burst	-2265
▁catch	-2266
▁corre	-2267
▁grand	-2268
▁ideas	-2269
▁infor	-2270
▁learn	-2271
▁light	-2272
▁peace	-2273
▁relie	-2274
▁separ	-2275
▁weeks	-2276
▁widow	-2277
▁wrong	-2278
ilities	-2279
retched	-2280
venient	-2281
▁beauty	-2282
▁compar	-2283
▁forced	-2284
▁horses	-2285
▁humour	-2286
▁joined	-2287
▁lately	-2288
▁misery	-2289
▁opened	-2290
▁rememb	-2291
▁rights	-2292
▁secret	-2293
▁smiled	-2294
▁sooner	-2295
▁strugg	-2296
▁summer	-2297
▁warmth	-2298
▁consult	-2299
▁evident	-2300
▁fancied	-2301
▁interru	-2302
▁introdu	-2303
▁invited	-2304
▁painful	-2305
▁promise	-2306
▁putting	-2307
▁service	-2308
▁several	-2309
▁sitting	-2310
▁smiling	-2311
▁wanting	-2312
▁whisper	-2313
▁affected	-2314
▁produced	-2315
▁properly	-2316
▁suspense	-2317
▁connexion	-2318
▁daughters	-2319
▁evidently	-2320
▁gratitude	-2321
▁relations	-2322
▁admiration	-2323
▁importance	-2324
▁indulgence	-2325
▁sentiments	-2326
▁tenderness	-2327
▁continually	-2328
▁superiority	-2329
▁astonishment	-2330
▁indifference	-2331
iz	-2332
—”	-2333
ief	-2334
ize	-2335
ror	-2336
son	-2337
tic	-2338
urd	-2339
▁Ri	-2340
▁bu	-2341
That	-2342
angu	-2343
aven	-2344
ford	-2345
ield	-2346
ison	-2347
quis	-2348
rist	-2349
will	-2350
▁Eng	-2351
▁Sop	-2352
▁adv	-2353
▁arm	-2354
▁def	-2355
▁fif	-2356
▁sim	-2357
aging	-2358
iable	-2359
iture	-2360
iving	-2361
ocked	-2362
shire	-2363
uthor	-2364
▁Nove	-2365
▁Will	-2366
▁aunt	-2367
▁dest	-2368
▁indu	-2369
▁news	-2370
▁pict	-2371
▁rous	-2372
▁send	-2373
▁soul	-2374
▁spee	-2375
▁spot	-2376
▁succ	-2377
▁vill	-2378
ferent	-2379
licity	-2380
othing	-2381
ounded	-2382
ravell	-2383
▁admit	-2384
▁alarm	-2385
▁alter	-2386
▁attra	-2387
▁birth	-2388
▁bloom	-2389
▁convi	-2390
▁delay	-2391
▁ended	-2392
▁event	-2393
▁hopes	-2394
▁maint	-2395
▁mater	-2396
▁pause	-2397
▁plain	-2398
▁recon	-2399
▁seven	-2400
▁tired	-2401
▁views	-2402
ational	-2403
▁Christ	-2404
▁applic	-2405
▁author	-2406
▁calcul	-2407
▁closed	-2408
▁desire	-2409
▁encour	-2410
▁escape	-2411
▁excite	-2412
▁famili	-2413
▁follow	-2414
▁merely	-2415
▁motive	-2416
▁nerves	-2417
▁praise	-2418
▁preced	-2419
▁proved	-2420
▁sounds	-2421
▁vanity	-2422
▁warmly	-2423
venience	-2424
▁absence	-2425
▁arrival	-2426
▁arrived	-2427
▁capable	-2428
▁divided	-2429
▁entreat	-2430
▁equally	-2431
▁fashion	-2432
▁highest	-2433
▁jealous	-2434
▁persons	-2435
▁quarter	-2436
▁quietly	-2437
▁selfish	-2438
▁station	-2439
▁stopped	-2440
▁travell	-2441
▁venture	-2442
▁village	-2443
▁visited	-2444
▁welcome	-2445
▁November	-2446
▁accident	-2447
▁actually	-2448
▁anywhere	-2449
▁blessing	-2450
▁cheerful	-2451
▁contrary	-2452
▁distance	-2453
▁dreadful	-2454
▁features	-2455
▁imagined	-2456
▁intimacy	-2457
▁intimate	-2458
▁mistaken	-2459
▁subjects	-2460
▁suffered	-2461
▁thorough	-2462
▁thoughts	-2463
▁wretched	-2464
▁amusement	-2465
▁ascertain	-2466
▁companion	-2467
▁convinced	-2468
▁dangerous	-2469
▁embarrass	-2470
▁enquiries	-2471
▁following	-2472
▁forgotten	-2473
▁listening	-2474
▁necessity	-2475
▁otherwise	-2476
▁attentions	-2477
▁sensations	-2478
▁solicitude	-2479
▁compliments	-2480
▁indifferent	-2481
▁possibility	-2482
▁recollection	-2483
.’	-2484
To	-2485
cu	-2486
fa	-2487
gr	-2488
ny	-2489
ug	-2490
▁z	-2491
III	-2492
abl	-2493
eks	-2494
onk	-2495
osp	-2496
pon	-2497
sit	-2498
und	-2499
▁By	-2500
▁Wh	-2501
▁XV	-2502
▁ed	-2503
▁sl	-2504
This	-2505
acon	-2506
ains	-2507
apid	-2508
edly	-2509
elve	-2510
empl	-2511
hich	-2512
ibly	-2513
inct	-2514
ives	-2515
omer	-2516
pose	-2517
ship	-2518
sper	-2519
uous	-2520
vent	-2521
▁God	-2522
▁ang	-2523
▁cru	-2524
▁cut	-2525
▁dev	-2526
▁rid	-2527
▁vex	-2528
▁war	-2529
ament	-2530
erted	-2531
ining	-2532
never	-2533
oming	-2534
overy	-2535
quent	-2536
rench	-2537
rigin	-2538
▁Lord	-2539
▁Monk	-2540
▁arms	-2541
▁blus	-2542
▁body	-2543
▁ease	-2544
▁ende	-2545
▁fast	-2546
▁fill	-2547
▁free	-2548
▁line	-2549
▁loss	-2550
▁prec	-2551
▁quit	-2552
▁symp	-2553
▁thus	-2554
▁weak	-2555
Indeed	-2556
aconia	-2557
atever	-2558
ensive	-2559
▁breat	-2560
▁close	-2561
▁exist	-2562
▁grace	-2563
▁habit	-2564
▁impat	-2565
▁lives	-2566
▁mamma	-2567
▁music	-2568
▁names	-2569
▁pract	-2570
▁proud	-2571
▁rapid	-2572
▁sacri	-2573
▁shewn	-2574
▁spent	-2575
▁steps	-2576
▁story	-2577
▁trust	-2578
ability	-2579
▁Though	-2580
▁admire	-2581
▁bright	-2582
▁ceased	-2583
▁cheeks	-2584
▁circle	-2585
▁curate	-2586
▁excess	-2587
▁explan	-2588
▁fallen	-2589
▁fright	-2590
▁minute	-2591
▁number	-2592
▁origin	-2593
▁roused	-2594
▁scheme	-2595
▁shewed	-2596
▁speech	-2597
▁suspic	-2598
▁theirs	-2599
itations	-2600
▁Laconia	-2601
▁address	-2602
▁affairs	-2603
▁appoint	-2604
▁changed	-2605
▁consent	-2606
▁earlier	-2607
▁emotion	-2608
▁entered	-2609
▁matters	-2610
▁notions	-2611
▁purpose	-2612
▁reading	-2613
▁receive	-2614
▁reconci	-2615
▁setting	-2616
▁success	-2617
▁writing	-2618
▁Monkford	-2619
▁absolute	-2620
▁addition	-2621
▁careless	-2622
▁civility	-2623
▁contempl	-2624
▁contempt	-2625
▁deserved	-2626
▁exertion	-2627
▁families	-2628
▁greatest	-2629
▁independ	-2630
▁marrying	-2631
▁persuade	-2632
▁standing	-2633
▁whatever	-2634
▁confusion	-2635
▁excepting	-2636
▁exclaimed	-2637
▁favourite	-2638
▁furniture	-2639
▁gradually	-2640
▁immediate	-2641
▁increased	-2642
▁judgement	-2643
▁observing	-2644
▁principle	-2645
▁represent	-2646
▁tolerable	-2647
▁astonished	-2648
▁conviction	-2649
▁expression	-2650
▁impression	-2651
▁previously	-2652
▁recovering	-2653
▁reflection	-2654
▁interrupted	-2655
▁observation	-2656
▁acknowledged	-2657
▁consequently	-2658
▁distinguished	-2659
▁gratification	-2660
:—	-2661
Ch	-2662
Do	-2663
be	-2664
ff	-2665
ob	-2666
uc	-2667
Now	-2668
ald	-2669
aur	-2670
bed	-2671
etr	-2672
isp	-2673
jud	-2674
ney	-2675
ume	-2676
▁da	-2677
▁hy	-2678
aunt	-2679
aura	-2680
cies	-2681
culi	-2682
ines	-2683
ized	-2684
ooke	-2685
ples	-2686
read	-2687
uing	-2688
what	-2689
with	-2690
▁Had	-2691
▁Ind	-2692
▁Now	-2693
▁Ply	-2694
▁ann	-2695
▁awk	-2696
▁bed	-2697
▁bow	-2698
▁ess	-2699
▁fat	-2700
▁hed	-2701
▁joy	-2702
▁law	-2703
▁led	-2704
▁lim	-2705
▁mem	-2706
▁mid	-2707
▁odd	-2708
▁ris	-2709
▁sad	-2710
▁sun	-2711
▁vol	-2712
There	-2713
aster	-2714
ative	-2715
chard	-2716
count	-2717
enced	-2718
iance	-2719
imate	-2720
owers	-2721
ulous	-2722
verse	-2723
which	-2724
▁Room	-2725
▁Then	-2726
▁Well	-2727
▁boys	-2728
▁choo	-2729
▁dark	-2730
▁died	-2731
▁disg	-2732
▁educ	-2733
▁fool	-2734
▁gall	-2735
▁glow	-2736
▁held	-2737
▁hosp	-2738
▁lose	-2739
▁mour	-2740
▁note	-2741
▁port	-2742
▁says	-2743
▁sofa	-2744
▁wear	-2745
assion	-2746
eeling	-2747
ential	-2748
erhaps	-2749
▁Could	-2750
▁Laura	-2751
▁Rooke	-2752
▁Sophy	-2753
▁These	-2754
▁cease	-2755
▁chair	-2756
▁comes	-2757
▁delic	-2758
▁fancy	-2759
▁fresh	-2760
▁grave	-2761
▁hurry	-2762
▁infin	-2763
▁knows	-2764
▁langu	-2765
▁laugh	-2766
▁moved	-2767
▁negle	-2768
▁oppos	-2769
▁overp	-2770
▁paper	-2771
▁perce	-2772
▁polit	-2773
▁press	-2774
▁tempt	-2775
▁trans	-2776
▁treat	-2777
▁worst	-2778
Charles	-2779
attered	-2780
ception	-2781
▁Indies	-2782
▁absurd	-2783
▁accord	-2784
▁choice	-2785
▁clever	-2786
▁confir	-2787
▁during	-2788
▁excuse	-2789
▁exquis	-2790
▁habits	-2791
▁horror	-2792
▁imprud	-2793
▁learnt	-2794
▁lessen	-2795
▁morrow	-2796
▁parted	-2797
▁peculi	-2798
▁preser	-2799
▁propri	-2800
▁rejoic	-2801
▁resent	-2802
▁result	-2803
▁safely	-2804
▁secure	-2805
▁settle	-2806
▁smiles	-2807
▁sought	-2808
▁steady	-2809
▁thrown	-2810
▁unable	-2811
▁visits	-2812
▁amiable	-2813
▁awkward	-2814
▁carried	-2815
▁courage	-2816
▁dancing	-2817
▁eagerly	-2818
▁excited	-2819
▁gallant	-2820
▁honours	-2821
▁illness	-2822
▁parties	-2823
▁passing	-2824
▁picture	-2825
▁private	-2826
▁prosper	-2827
▁refused	-2828
▁suggest	-2829
▁witness	-2830
▁younger	-2831
▁Plymouth	-2832
▁apparent	-2833
▁approach	-2834
▁composed	-2835
▁decision	-2836
▁entering	-2837
▁felicity	-2838
▁friendly	-2839
▁hopeless	-2840
▁intended	-2841
▁material	-2842
▁mistress	-2843
▁proposed	-2844
▁prospect	-2845
▁rational	-2846
▁struggle	-2847
▁suddenly	-2848
▁whenever	-2849
▁authority	-2850
▁collected	-2851
▁concerned	-2852
▁decidedly	-2853
▁essential	-2854
▁expressed	-2855
▁important	-2856
▁intention	-2857
▁momentary	-2858
▁ourselves	-2859
▁recovered	-2860
▁remaining	-2861
▁sentiment	-2862
▁seriously	-2863
▁companions	-2864
▁connexions	-2865
▁delightful	-2866
▁difficulty	-2867
▁infinitely	-2868
▁neighbours	-2869
▁opposition	-2870
▁sufficient	-2871
▁disposition	-2872
▁excessively	-2873
▁improvement	-2874
▁considerable	-2875
Ah	-2876
do	-2877
no	-2878
How	-2879
ale	-2880
alt	-2881
apa	-2882
ays	-2883
con	-2884
hum	-2885
ias	-2886
oci	-2887
onc	-2888
ote	-2889
pet	-2890
ron	-2891
ury	-2892
yed	-2893
▁17	-2894
▁Be	-2895
▁XI	-2896
▁co	-2897
▁na	-2898
▁om	-2899
▁sw	-2900
Miss	-2901
What	-2902
aped	-2903
appy	-2904
enes	-2905
geon	-2906
ices	-2907
ilar	-2908
inet	-2909
iven	-2910
just	-2911
maid	-2912
ored	-2913
orne	-2914
osal	-2915
roll	-2916
sery	-2917
they	-2918
▁Asp	-2919
▁Mar	-2920
▁Was	-2921
▁Yes	-2922
▁ali	-2923
▁cou	-2924
▁env	-2925
▁lau	-2926
▁lib	-2927
▁nay	-2928
▁tou	-2929
ailed	-2930
aints	-2931
ainty	-2932
anced	-2933
aning	-2934
arted	-2935
avour	-2936
ckles	-2937
ially	-2938
isely	-2939
isted	-2940
night	-2941
osure	-2942
ouses	-2943
pping	-2944
suits	-2945
there	-2946
ticip	-2947
uable	-2948
under	-2949
utual	-2950
▁Dick	-2951
▁cert	-2952
▁cool	-2953
▁cure	-2954
▁dead	-2955
▁draw	-2956
▁keen	-2957
▁meas	-2958
▁miss	-2959
▁nons	-2960
▁paid	-2961
▁papa	-2962
▁rend	-2963
▁rise	-2964
▁risk	-2965
▁ruin	-2966
▁soft	-2967
▁stud	-2968
▁tran	-2969
▁trif	-2970
▁ways	-2971
▁wild	-2972
▁wise	-2973
angers	-2974
aunton	-2975
cience	-2976
fortun	-2977
olding	-2978
ounced	-2979
ourney	-2980
spaper	-2981
▁James	-2982
▁Somer	-2983
▁above	-2984
▁affli	-2985
▁agony	-2986
▁artic	-2987
▁benef	-2988
▁blame	-2989
▁borne	-2990
▁carry	-2991
▁cause	-2992
▁cross	-2993
▁daily	-2994
▁drawn	-2995
▁enter	-2996
▁exper	-2997
▁fault	-2998
▁fifty	-2999
▁folly	-3000
▁grant	-3001
▁guess	-3002
▁hedge	-3003
▁human	-3004
▁irres	-3005
▁lines	-3006
▁makes	-3007
▁misch	-3008
▁naval	-3009
▁ninet	-3010
▁space	-3011
▁thick	-3012
▁twice	-3013
▁write	-3014
▁yield	-3015
essions	-3016
hearted	-3017
▁amused	-3018
▁appeal	-3019
▁associ	-3020
▁broken	-3021
▁contri	-3022
▁corner	-3023
▁decent	-3024
▁deeply	-3025
▁design	-3026
▁easily	-3027
▁establ	-3028
▁estate	-3029
▁failed	-3030
▁feared	-3031
▁forese	-3032
▁higher	-3033
▁houses	-3034
▁indisp	-3035
▁kindly	-3036
▁lament	-3037
▁latter	-3038
▁lively	-3039
▁memory	-3040
▁penetr	-3041
▁perfor	-3042
▁points	-3043
▁relief	-3044
▁sailor	-3045
▁single	-3046
▁strict	-3047
▁stroll	-3048
▁suited	-3049
▁supply	-3050
▁thinks	-3051
▁thirty	-3052
▁twelve	-3053
ignation	-3054
▁Elliots	-3055
▁England	-3056
▁However	-3057
▁Taunton	-3058
▁anticip	-3059
▁captain	-3060
▁caution	-3061
▁conceal	-3062
▁cottage	-3063
▁discern	-3064
▁distant	-3065
▁effects	-3066
▁greatly	-3067
▁grounds	-3068
▁hurried	-3069
▁induced	-3070
▁nursery	-3071
▁officer	-3072
▁pretend	-3073
▁quitted	-3074
▁readily	-3075
▁regular	-3076
▁renewed	-3077
▁sailors	-3078
▁sending	-3079
▁sincere	-3080
▁streets	-3081
▁surgeon	-3082
▁sympath	-3083
▁telling	-3084
▁totally	-3085
▁willing	-3086
▁Somerset	-3087
▁arranged	-3088
▁attended	-3089
▁belonged	-3090
▁conveyed	-3091
▁convince	-3092
▁declared	-3093
▁elegance	-3094
▁happiest	-3095
▁language	-3096
▁laughing	-3097
▁moreover	-3098
▁mourning	-3099
▁nineteen	-3100
▁obliging	-3101
▁opposite	-3102
▁precious	-3103
▁probable	-3104
▁pursuits	-3105
▁quitting	-3106
▁recovery	-3107
▁rendered	-3108
▁respects	-3109
▁retrench	-3110
▁sacrific	-3111
▁servants	-3112
▁ventured	-3113
▁youngest	-3114
▁Christmas	-3115
▁apprehens	-3116
▁attentive	-3117
▁beautiful	-3118
▁composure	-3119
▁entertain	-3120
▁exquisite	-3121
▁fortitude	-3122
▁impatient	-3123
▁naturally	-3124
▁newspaper	-3125
▁presented	-3126
▁principal	-3127
▁proceeded	-3128
▁receiving	-3129
▁succeeded	-3130
▁unfeeling	-3131
▁accomplish	-3132
▁apparently	-3133
▁assistance	-3134
▁comparison	-3135
▁compassion	-3136
▁conscience	-3137
▁cordiality	-3138
▁distressed	-3139
▁politeness	-3140
▁possession	-3141
▁thoroughly	-3142
▁distinguish	-3143
▁explanation	-3144
▁impressions	-3145
▁information	-3146
▁particulars	-3147
▁recollected	-3148
▁remembrance	-3149
▁arrangements	-3150
▁cheerfulness	-3151
▁disappointed	-3152
▁inconvenient	-3153
▁independence	-3154
▁intelligence	-3155
▁interference	-3156
▁introduction	-3157
▁occasionally	-3158
▁communication	-3159
▁consideration	-3160
▁accommodations	-3161
▁recommendation	-3162
?’	-3163
Ay	-3164
So	-3165
af	-3166
bs	-3167
by	-3168
cl	-3169
gy	-3170
lb	-3171
sq	-3172
xp	-3173
Not	-3174
aze	-3175
ges	-3176
ime	-3177
imp	-3178
iol	-3179
lly	-3180
lty	-3181
nat	-3182
pic	-3183
ric	-3184
ung	-3185
urs	-3186
uss	-3187
▁18	-3188
▁Ed	-3189
▁Ne	-3190
▁Un	-3191
▁fr	-3192
Dear	-3193
Very	-3194
aise	-3195
anch	-3196
ands	-3197
anny	-3198
cher	-3199
duce	-3200
ency	-3201
erem	-3202
ergy	-3203
iece	-3204
itch	-3205
kind	-3206
lais	-3207
odge	-3208
only	-3209
orts	-3210
oted	-3211
road	-3212
rust	-3213
ster	-3214
urch	-3215
well	-3216
▁Esq	-3217
▁Let	-3218
▁Who	-3219
▁bew	-3220
▁bit	-3221
▁box	-3222
▁col	-3223
▁dee	-3224
▁ign	-3225
▁imm	-3226
▁med	-3227
▁nut	-3228
▁ord	-3229
▁ran	-3230
▁sir	-3231
▁unh	-3232
▁uns	-3233
▁wat	-3234
after	-3235
agree	-3236
alian	-3237
arily	-3238
ental	-3239
erity	-3240
house	-3241
iding	-3242
ilsom	-3243
itary	-3244
itous	-3245
lying	-3246
rooms	-3247
spond	-3248
▁From	-3249
▁Tues	-3250
▁Upon	-3251
▁boat	-3252
▁born	-3253
▁crow	-3254
▁curt	-3255
▁diss	-3256
▁excl	-3257
▁farm	-3258
▁fate	-3259
▁firm	-3260
▁forb	-3261
▁gard	-3262
▁grow	-3263
▁harm	-3264
▁hund	-3265
▁inev	-3266
▁jump	-3267
▁mile	-3268
▁nine	-3269
▁oper	-3270
▁path	-3271
▁pave	-3272
▁proc	-3273
▁prov	-3274
▁rate	-3275
▁rent	-3276
▁sand	-3277
▁save	-3278
▁sees	-3279
▁shew	-3280
▁shop	-3281
▁sink	-3282
▁stir	-3283
▁stra	-3284
▁unne	-3285
▁unqu	-3286
▁viol	-3287
▁zeal	-3288
ateful	-3289
change	-3290
illing	-3291
ooting	-3292
ounter	-3293
verted	-3294
▁Lodge	-3295
▁Marlb	-3296
▁angry	-3297
▁apart	-3298
▁black	-3299
▁blind	-3300
▁cared	-3301
▁cerem	-3302
▁check	-3303
▁chief	-3304
▁chose	-3305
▁civil	-3306
▁cruel	-3307
▁dared	-3308
▁dined	-3309
▁drive	-3310
▁drove	-3311
▁estee	-3312
▁evils	-3313
▁gover	-3314
▁heads	-3315
▁ignor	-3316
▁later	-3317
▁liber	-3318
▁noise	-3319
▁repro	-3320
▁reser	-3321
▁resol	-3322
▁revol	-3323
▁scene	-3324
▁shock	-3325
▁stead	-3326
▁trial	-3327
▁wants	-3328
▁wound	-3329
Perhaps	-3330
aration	-3331
armouth	-3332
liation	-3333
▁Edward	-3334
▁Milsom	-3335
▁abroad	-3336
▁absent	-3337
▁acting	-3338
▁active	-3339
▁advice	-3340
▁belief	-3341
▁chaise	-3342
▁church	-3343
▁consol	-3344
▁couple	-3345
▁curacy	-3346
▁decide	-3347
▁destro	-3348
▁events	-3349
▁ground	-3350
▁hearts	-3351
▁heaven	-3352
▁height	-3353
▁hyster	-3354
▁income	-3355
▁injury	-3356
▁liking	-3357
▁lovely	-3358
▁merits	-3359
▁modest	-3360
▁mutual	-3361
▁office	-3362
▁perpet	-3363
▁places	-3364
▁played	-3365
▁please	-3366
▁poetry	-3367
▁pounds	-3368
▁powers	-3369
▁raised	-3370
▁scenes	-3371
▁sorrow	-3372
▁spread	-3373
▁unwell	-3374
▁valued	-3375
▁waited	-3376
▁worthy	-3377
ertainly	-3378
laisance	-3379
oubtedly	-3380
▁Hayters	-3381
▁Italian	-3382
▁Nothing	-3383
▁Richard	-3384
▁Tuesday	-3385
▁admired	-3386
▁apology	-3387
▁applied	-3388
▁assured	-3389
▁benefit	-3390
▁careful	-3391
▁cleared	-3392
▁correct	-3393
▁enquiry	-3394
▁explain	-3395
▁finally	-3396
▁flatter	-3397
▁footing	-3398
▁grieved	-3399
▁happier	-3400
▁happily	-3401
▁hundred	-3402
▁journey	-3403
▁leading	-3404
▁liberty	-3405
▁mistake	-3406
▁neglect	-3407
▁offered	-3408
▁related	-3409
▁running	-3410
▁scruple	-3411
▁tenants	-3412
▁unworth	-3413
▁uttered	-3414
▁various	-3415
▁worldly	-3416
▁Westgate	-3417
▁accounts	-3418
▁alliance	-3419
▁assisted	-3420
▁attached	-3421
▁attempts	-3422
▁becoming	-3423
▁compared	-3424
▁concerns	-3425
▁deserted	-3426
▁distrust	-3427
▁employed	-3428
▁entrance	-3429
▁formerly	-3430
▁freckles	-3431
▁inclined	-3432
▁included	-3433
▁increase	-3434
▁involved	-3435
▁lessened	-3436
▁offering	-3437
▁peculiar	-3438
▁rejoiced	-3439
▁relation	-3440
▁resident	-3441
▁resolute	-3442
▁restored	-3443
▁somebody	-3444
▁spending	-3445
▁startled	-3446
▁stronger	-3447
▁supplied	-3448
▁unfortun	-3449
▁unnecess	-3450
▁valuable	-3451
▁wherever	-3452
▁animation	-3453
▁belonging	-3454
▁certainty	-3455
▁connected	-3456
▁constancy	-3457
▁described	-3458
▁eagerness	-3459
▁earnestly	-3460
▁education	-3461
▁endeavour	-3462
▁fortnight	-3463
▁gallantry	-3464
▁gratified	-3465
▁hereafter	-3466
▁intervals	-3467
▁objection	-3468
▁precisely	-3469
▁preferred	-3470
▁preparing	-3471
▁prevented	-3472
▁propriety	-3473
▁reference	-3474
▁residence	-3475
▁sensation	-3476
▁strongest	-3477
▁submitted	-3478
▁supposing	-3479
▁travelled	-3480
▁uncertain	-3481
▁Everything	-3482
▁absolutely	-3483
▁advantages	-3484
▁attraction	-3485
▁conclusion	-3486
▁connection	-3487
▁continuing	-3488
▁correspond	-3489
▁experience	-3490
▁gentleness	-3491
▁influenced	-3492
▁occupation	-3493
▁persuasion	-3494
▁prosperity	-3495
▁reasonable	-3496
▁usefulness	-3497
▁Marlborough	-3498
▁accordingly	-3499
▁appointment	-3500
▁arrangement	-3501
▁convenience	-3502
▁maintaining	-3503
▁respectable	-3504
▁selfishness	-3505
▁undoubtedly	-3506
▁complaisance	-3507
▁relationship	-3508
▁mortification	-3509
▁reconciliation	-3510
▁respectability	-3511
).	-3512
.,	-3513
;_	-3514
An	-3515
If	-3516
LL	-3517
Qu	-3518
ec	-3519
gu	-3520
oc	-3521
▁&	-3522
acr	-3523
ail	-3524
any	-3525
asy	-3526
ats	-3527
avi	-3528
dra	-3529
hoo	-3530
how	-3531
hus	-3532
iam	-3533
ima	-3534
kon	-3535
law	-3536
nce	-3537
oly	-3538
oub	-3539
win	-3540
▁Is	-3541
▁Of	-3542
▁Sc	-3543
▁Tw	-3544
▁id	-3545
▁ta	-3546
▁ur	-3547
Good	-3548
Lady	-3549
Poor	-3550
They	-3551
alog	-3552
ases	-3553
epte	-3554
etch	-3555
four	-3556
hold	-3557
iced	-3558
illy	-3559
ires	-3560
ldom	-3561
luct	-3562
olid	-3563
oolf	-3564
othe	-3565
plex	-3566
rell	-3567
rink	-3568
rose	-3569
sing	-3570
ssed	-3571
turn	-3572
unct	-3573
vert	-3574
vous	-3575
xion	-3576
▁178	-3577
▁Can	-3578
▁Ham	-3579
▁Jem	-3580
▁Vis	-3581
▁Why	-3582
▁XXI	-3583
▁ado	-3584
▁ard	-3585
▁cre	-3586
▁der	-3587
▁det	-3588
▁dim	-3589
▁eat	-3590
▁elo	-3591
▁fac	-3592
▁fer	-3593
▁fig	-3594
▁gif	-3595
▁irr	-3596
▁lab	-3597
▁leg	-3598
▁mad	-3599
▁mel	-3600
▁oft	-3601
▁pit	-3602
▁pus	-3603
▁rum	-3604
▁shy	-3605
▁smo	-3606
abled	-3607
anges	-3608
arded	-3609
arest	-3610
armed	-3611
asing	-3612
asses	-3613
asted	-3614
cient	-3615
ected	-3616
ellow	-3617
ethod	-3618
gress	-3619
hered	-3620
ighed	-3621
ilton	-3622
inson	-3623
isure	-3624
mance	-3625
ories	-3626
quill	-3627
ricle	-3628
stant	-3629
using	-3630
vices	-3631
while	-3632
xious	-3633
▁Bald	-3634
▁Even	-3635
▁Have	-3636
▁Mans	-3637
▁Once	-3638
▁Pray	-3639
▁Very	-3640
▁alas	-3641
▁bent	-3642
▁bore	-3643
▁busy	-3644
▁cham	-3645
▁chat	-3646
▁degr	-3647
▁desc	-3648
▁desp	-3649
▁disd	-3650
▁fanc	-3651
▁gain	-3652
▁grew	-3653
▁grou	-3654
▁hang	-3655
▁harp	-3656
▁hate	-3657
▁inqu	-3658
▁lane	-3659
▁owed	-3660
▁post	-3661
▁pray	-3662
▁prud	-3663
▁purs	-3664
▁rese	-3665
▁seek	-3666
▁sole	-3667
▁song	-3668
▁stop	-3669
▁sunk	-3670
▁surr	-3671
▁test	-3672
▁unre	-3673
▁wall	-3674
acious	-3675
acrity	-3676
aneous	-3677
aviour	-3678
ension	-3679
erning	-3680
fected	-3681
formed	-3682
icable	-3683
ieties	-3684
ifying	-3685
ishing	-3686
ission	-3687
itated	-3688
jected	-3689
lesome	-3690
owager	-3691
pulous	-3692
riages	-3693
urable	-3694
usable	-3695
ussion	-3696
▁Fanny	-3697
▁North	-3698
▁Septe	-3699
▁Where	-3700
▁afflu	-3701
▁alike	-3702
▁alive	-3703
▁arose	-3704
▁blush	-3705
▁cards	-3706
▁class	-3707
▁crowd	-3708
▁dwell	-3709
▁entit	-3710
▁exped	-3711
▁faith	-3712
▁fatig	-3713
▁fears	-3714
▁fetch	-3715
▁forth	-3716
▁grown	-3717
▁hesit	-3718
▁holid	-3719
▁horse	-3720
▁inval	-3721
▁knock	-3722
▁landl	-3723
▁lower	-3724
▁lucky	-3725
▁merit	-3726
▁moral	-3727
▁older	-3728
▁owner	-3729
▁pains	-3730
▁posit	-3731
▁presu	-3732
▁prove	-3733
▁provo	-3734
▁rough	-3735
▁schem	-3736
▁shame	-3737
▁shore	-3738
▁silly	-3739
▁speed	-3740
▁sport	-3741
▁staid	-3742
▁takes	-3743
▁tells	-3744
▁third	-3745
▁total	-3746
▁touch	-3747
▁unfit	-3748
▁vexed	-3749
▁water	-3750
▁wrote	-3751
Captain	-3752
alified	-3753
ancholy	-3754
atively	-3755
ergyman	-3756
ificial	-3757
istible	-3758
leasant	-3759
owering	-3760
▁Heaven	-3761
▁Jemima	-3762
▁Nobody	-3763
▁Rivers	-3764
▁actual	-3765
▁adding	-3766
▁arrive	-3767
▁asking	-3768
▁begged	-3769
▁bestow	-3770
▁calmer	-3771
▁choose	-3772
▁county	-3773
▁daring	-3774
▁dining	-3775
▁driven	-3776
▁duties	-3777
▁endure	-3778
▁enthus	-3779
▁exclam	-3780
▁fairly	-3781
▁figure	-3782
▁filled	-3783
▁finish	-3784
▁fixing	-3785
▁formed	-3786
▁gained	-3787
▁hearty	-3788
▁insens	-3789
▁instru	-3790
▁insult	-3791
▁interv	-3792
▁invite	-3793
▁labour	-3794
▁liable	-3795
▁livery	-3796
▁longed	-3797
▁marked	-3798
▁master	-3799
▁mental	-3800
▁motion	-3801
▁nearer	-3802
▁oppose	-3803
▁polite	-3804
▁reckon	-3805
▁releas	-3806
▁reluct	-3807
▁restri	-3808
▁season	-3809
▁seldom	-3810
▁spared	-3811
▁stairs	-3812
▁strike	-3813
▁trifle	-3814
▁uncons	-3815
▁united	-3816
▁unjust	-3817
▁unless	-3818
▁unlike	-3819
▁volume	-3820
▁waiter	-3821
▁weight	-3822
ableness	-3823
countess	-3824
humoured	-3825
▁Baldwin	-3826
▁Mansion	-3827
▁Neither	-3828
▁William	-3829
▁admiral	-3830
▁alarmed	-3831
▁article	-3832
▁blessed	-3833
▁changes	-3834
▁compare	-3835
▁contrad	-3836
▁curious	-3837
▁disgust	-3838
▁display	-3839
▁driving	-3840
▁escaped	-3841
▁fearing	-3842
▁foresee	-3843
▁forming	-3844
▁leaning	-3845
▁learned	-3846
▁leisure	-3847
▁oftener	-3848
▁opening	-3849
▁parents	-3850
▁parting	-3851
▁possess	-3852
▁privile	-3853
▁produce	-3854
▁propose	-3855
▁protest	-3856
▁quickly	-3857
▁rejoice	-3858
▁removed	-3859
▁schoolf	-3860
▁secured	-3861
▁shocked	-3862
▁similar	-3863
▁sinking	-3864
▁tempted	-3865
▁unhappy	-3866
▁upright	-3867
▁watched	-3868
▁withdra	-3869
agreeable	-3870
▁Hamilton	-3871
▁acquired	-3872
▁alacrity	-3873
▁animated	-3874
▁calmness	-3875
▁cautious	-3876
▁ceremony	-3877
▁charming	-3878
▁comforts	-3879
▁complain	-3880
▁curricle	-3881
▁declined	-3882
▁delicacy	-3883
▁depended	-3884
▁disinter	-3885
▁doubtful	-3886
▁earliest	-3887
▁eloquent	-3888
▁enquired	-3889
▁estimate	-3890
▁fancying	-3891
▁forgiven	-3892
▁frequent	-3893
▁goodness	-3894
▁grateful	-3895
▁grieving	-3896
▁hastened	-3897
▁holidays	-3898
▁instinct	-3899
▁inviting	-3900
▁measures	-3901
▁meetings	-3902
▁mischief	-3903
▁nonsense	-3904
▁openness	-3905
▁overcome	-3906
▁patience	-3907
▁pavement	-3908
▁perceive	-3909
▁polished	-3910
▁politely	-3911
▁possibly	-3912
▁powerful	-3913
▁presence	-3914
▁proposal	-3915
▁reproach	-3916
▁separate	-3917
▁services	-3918
▁shooting	-3919
▁solitary	-3920
▁solitude	-3921
▁straight	-3922
▁stranger	-3923
▁unworthy	-3924
▁visitors	-3925
▁watching	-3926
▁weakness	-3927
▁Everybody	-3928
▁September	-3929
▁announced	-3930
▁anxiously	-3931
▁behaviour	-3932
▁believing	-3933
▁ceaseless	-3934
▁clergyman	-3935
▁commanded	-3936
▁consulted	-3937
▁deficient	-3938
▁deserving	-3939
▁destroyed	-3940
▁entreated	-3941
▁exertions	-3942
▁explained	-3943
▁flattered	-3944
▁frightful	-3945
▁instances	-3946
▁lessening	-3947
▁occupying	-3948
▁possessed	-3949
▁preceding	-3950
▁presently	-3951
▁regretted	-3952
▁sincerity	-3953
▁somewhere	-3954
▁strangers	-3955
▁suspected	-3956
▁suspicion	-3957
▁sweetness	-3958
▁tranquill	-3959
▁witnessed	-3960
▁Dalrymples	-3961
▁agitations	-3962
▁artificial	-3963
▁civilities	-3964
▁complexion	-3965
▁compliment	-3966
▁comprehens	-3967
▁convenient	-3968
▁dependence	-3969
▁employment	-3970
▁encouraged	-3971
▁favourable	-3972
▁hospitable	-3973
▁hysterical	-3974
▁imprudence	-3975
▁melancholy	-3976
▁partiality	-3977
▁pleasantly	-3978
▁precedence	-3979
▁proceeding	-3980
▁remarkable	-3981
▁remembered	-3982
▁repeatedly	-3983
▁separation	-3984
▁succeeding	-3985
▁suspecting	-3986
▁unpleasant	-3987
▁Viscountess	-3988
▁application	-3989
▁awkwardness	-3990
▁consolation	-3991
▁distressing	-3992
▁embarrassed	-3993
▁encouraging	-3994
▁established	-3995
▁expectation	-3996
▁expressions	-3997
▁intelligent	-3998
▁interchange	-3999
▁invitations	-4000
▁performance	-4001
▁principally	-4002
▁remembering	-4003
▁sensibility	-4004
▁unnecessary	-4005
▁applications	-4006
▁calculations	-4007
▁communicated	-4008
▁irresistible	-4009
▁restrictions	-4010
▁schoolfellow	-4011
▁Somersetshire	-4012
▁comparatively	-4013
▁disinterested	-4014
▁inconvenience	-4015
▁recollections	-4016
▁disappointment	-4017
▁accomplishments	-4018
);	-4019
,)	-4020
,—	-4021
0,	-4022
5,	-4023
Is	-4024
ah	-4025
az	-4026
ep	-4027
go	-4028
jo	-4029
oh	-4030
sc	-4031
wh	-4032
wr	-4033
zz	-4034
:—“	-4035
Are	-4036
Can	-4037
Did	-4038
Old	-4039
Sir	-4040
ael	-4041
agg	-4042
amp	-4043
ces	-4044
elm	-4045
enu	-4046
esc	-4047
eur	-4048
ffs	-4049
gra	-4050
iae	-4051
ibr	-4052
ich	-4053
irt	-4054
ixt	-4055
kes	-4056
lag	-4057
lig	-4058
mpt	-4059
nal	-4060
nes	-4061
nly	-4062
nor	-4063
nug	-4064
ocr	-4065
ogn	-4066
oms	-4067
omy	-4068
oop	-4069
ope	-4070
ots	-4071
ows	-4072
rid	-4073
rob	-4074
rov	-4075
rue	-4076
she	-4077
spe	-4078
two	-4079
ule	-4080
umb	-4081
vag	-4082
vel	-4083
▁Ah	-4084
▁Al	-4085
▁Ex	-4086
▁II	-4087
▁ay	-4088
▁cr	-4089
▁er	-4090
▁pa	-4091
▁sk	-4092
Anne	-4093
Then	-4094
Upon	-4095
aced	-4096
adow	-4097
agon	-4098
ants	-4099
asil	-4100
comm	-4101
ctor	-4102
ding	-4103
ench	-4104
fici	-4105
gent	-4106
ghed	-4107
grav	-4108
iano	-4109
iasm	-4110
idst	-4111
irty	-4112
ital	-4113
ival	-4114
lant	-4115
lour	-4116
male	-4117
noon	-4118
omen	-4119
omin	-4120
osen	-4121
outs	-4122
oved	-4123
pper	-4124
rapp	-4125
reen	-4126
rees	-4127
rost	-4128
rubb	-4129
sett	-4130
ulse	-4131
umph	-4132
umpt	-4133
urse	-4134
usal	-4135
▁180	-4136
▁Bar	-4137
▁Gow	-4138
▁Not	-4139
▁Oct	-4140
▁Rob	-4141
▁Yet	-4142
▁ane	-4143
▁apt	-4144
▁bid	-4145
▁bod	-4146
▁bri	-4147
▁buy	-4148
▁cli	-4149
▁coo	-4150
▁dem	-4151
▁den	-4152
▁dog	-4153
▁ere	-4154
▁gay	-4155
▁gro	-4156
▁gun	-4157
▁haz	-4158
▁ing	-4159
▁lay	-4160
▁lie	-4161
▁lot	-4162
▁nob	-4163
▁obt	-4164
▁pin	-4165
▁ple	-4166
▁rom	-4167
▁sex	-4168
▁sli	-4169
▁squ	-4170
▁tax	-4171
▁tor	-4172
▁vac	-4173
▁vig	-4174
Bless	-4175
acher	-4176
aired	-4177
airly	-4178
alogy	-4179
altar	-4180
anter	-4181
antly	-4182
ature	-4183
cting	-4184
ences	-4185
enses	-4186
ented	-4187
estig	-4188
hetic	-4189
ivers	-4190
known	-4191
lived	-4192
month	-4193
onday	-4194
orted	-4195
ottom	-4196
place	-4197
sever	-4198
stand	-4199
teous	-4200
uated	-4201
uding	-4202
ultiv	-4203
urity	-4204
ushed	-4205
ustom	-4206
velty	-4207
▁Belm	-4208
▁Cape	-4209
▁Conc	-4210
▁Does	-4211
▁Gibr	-4212
▁Hart	-4213
▁June	-4214
▁Mich	-4215
▁More	-4216
▁Only	-4217
▁Poor	-4218
▁Prov	-4219
▁Sund	-4220
▁Thir	-4221
▁adjo	-4222
▁arch	-4223
▁ball	-4224
▁bath	-4225
▁bias	-4226
▁bill	-4227
▁bust	-4228
▁capt	-4229
▁cent	-4230
▁coar	-4231
▁date	-4232
▁debt	-4233
▁dece	-4234
▁deli	-4235
▁depl	-4236
▁drop	-4237
▁dull	-4238
▁econ	-4239
▁elev	-4240
▁emot	-4241
▁estr	-4242
▁fire	-4243
▁foul	-4244
▁game	-4245
▁gate	-4246
▁glor	-4247
▁gout	-4248
▁guid	-4249
▁heed	-4250
▁idle	-4251
▁laid	-4252
▁ling	-4253
▁maid	-4254
▁mark	-4255
▁mess	-4256
▁mild	-4257
▁neat	-4258
▁prem	-4259
▁quot	-4260
▁rapt	-4261
▁redu	-4262
▁rejo	-4263
▁ring	-4264
▁road	-4265
▁rock	-4266
▁sequ	-4267
▁sign	-4268
▁sits	-4269
▁size	-4270
▁slow	-4271
▁snug	-4272
▁sore	-4273
▁sour	-4274
▁step	-4275
▁tall	-4276
▁unaf	-4277
▁unob	-4278
▁worn	-4279
Walter	-4280
abouts	-4281
actory	-4282
aelmas	-4283
asions	-4284
atible	-4285
atives	-4286
earing	-4287
elcome	-4288
encies	-4289
ertion	-4290
estion	-4291
hether	-4292
idious	-4293
iduous	-4294
igning	-4295
istent	-4296
itably	-4297
liness	-4298
looked	-4299
mitted	-4300
olence	-4301
owered	-4302
ptions	-4303
raints	-4304
rehens	-4305
retion	-4306
thirty	-4307
ursday	-4308
ustice	-4309
▁Basil	-4310
▁Byron	-4311
▁Grapp	-4312
▁Nurse	-4313
▁Ports	-4314
▁Shrop	-4315
▁Union	-4316
▁White	-4317
▁Would	-4318
▁alloy	-4319
▁amiss	-4320
▁awful	-4321
▁becom	-4322
▁bench	-4323
▁blood	-4324
▁cares	-4325
▁cases	-4326
▁disre	-4327
▁doors	-4328
▁engro	-4329
▁faces	-4330
▁faded	-4331
▁field	-4332
▁fores	-4333
▁forty	-4334
▁frost	-4335
▁grief	-4336
▁group	-4337
▁guard	-4338
▁hence	-4339
▁holds	-4340
▁imper	-4341
▁joint	-4342
▁laund	-4343
▁limbs	-4344
▁merry	-4345
▁midst	-4346
▁minds	-4347
▁model	-4348
▁moder	-4349
▁mouth	-4350
▁named	-4351
▁piano	-4352
▁piece	-4353
▁prize	-4354
▁punct	-4355
▁range	-4356
▁regul	-4357
▁relin	-4358
▁sands	-4359
▁saved	-4360
▁shake	-4361
▁shape	-4362
▁ships	-4363
▁shook	-4364
▁sloop	-4365
▁spare	-4366
▁spont	-4367
▁stage	-4368
▁stile	-4369
▁subdu	-4370
▁sympt	-4371
▁talks	-4372
▁toils	-4373
▁topic	-4374
▁troub	-4375
▁uncon	-4376
▁undes	-4377
▁unexp	-4378
▁unpro	-4379
▁upper	-4380
▁waste	-4381
▁wiser	-4382
Nothing	-4383
avoured	-4384
inction	-4385
inement	-4386
itality	-4387
itching	-4388
ordered	-4389
turning	-4390
umptive	-4391
venteen	-4392
▁Before	-4393
▁Depend	-4394
▁Indeed	-4395
▁Monday	-4396
▁abomin	-4397
▁across	-4398
▁aggrav	-4399
▁amidst	-4400
▁ardour	-4401
▁betray	-4402
▁bitter	-4403
▁bottom	-4404
▁brilli	-4405
▁charms	-4406
▁chosen	-4407
▁colour	-4408
▁coolly	-4409
▁cultiv	-4410
▁deemed	-4411
▁defect	-4412
▁double	-4413
▁doubts	-4414
▁effort	-4415
▁esteem	-4416
▁female	-4417
▁flower	-4418
▁formal	-4419
▁fortun	-4420
▁garden	-4421
▁gently	-4422
▁gladly	-4423
▁guided	-4424
▁honest	-4425
▁incumb	-4426
▁induce	-4427
▁judged	-4428
▁keener	-4429
▁method	-4430
▁miscon	-4431
▁misled	-4432
▁moving	-4433
▁noises	-4434
▁parent	-4435
▁parish	-4436
▁paying	-4437
▁perman	-4438
▁plenty	-4439
▁prejud	-4440
▁recent	-4441
▁recogn	-4442
▁repose	-4443
▁resist	-4444
▁restor	-4445
▁richer	-4446
▁rising	-4447
▁rumour	-4448
▁safety	-4449
▁senses	-4450
▁shrink	-4451
▁shrubb	-4452
▁sighed	-4453
▁simple	-4454
▁spoilt	-4455
▁submit	-4456
▁undert	-4457
▁unkind	-4458
▁utmost	-4459
▁weaken	-4460
▁worked	-4461
arations	-4462
ceptible	-4463
lessness	-4464
omething	-4465
robation	-4466
▁Another	-4467
▁Baronet	-4468
▁Belmont	-4469
▁Concert	-4470
▁Dowager	-4471
▁English	-4472
▁Gowland	-4473
▁Octagon	-4474
▁accompl	-4475
▁adopted	-4476
▁alluded	-4477
▁amongst	-4478
▁amusing	-4479
▁analogy	-4480
▁ancient	-4481
▁animate	-4482
▁answers	-4483
▁appears	-4484
▁asunder	-4485
▁avoided	-4486
▁beloved	-4487
▁beneath	-4488
▁breathe	-4489
▁chamber	-4490
▁claimed	-4491
▁comprom	-4492
▁condesc	-4493
▁confirm	-4494
▁conject	-4495
▁cordial	-4496
▁demands	-4497
▁deserve	-4498
▁dinners	-4499
▁disdain	-4500
▁dislike	-4501
▁dropped	-4502
▁economy	-4503
▁enabled	-4504
▁enjoyed	-4505
▁excused	-4506
▁fearful	-4507
▁fellows	-4508
▁fervent	-4509
▁fifteen	-4510
▁fitting	-4511
▁folding	-4512
▁frigate	-4513
▁furnish	-4514
▁glowing	-4515
▁gravely	-4516
▁hanging	-4517
▁happens	-4518
▁hastily	-4519
▁implied	-4520
▁impulse	-4521
▁invalid	-4522
▁involve	-4523
▁keeping	-4524
▁kindest	-4525
▁knocked	-4526
▁lasting	-4527
▁laughed	-4528
▁message	-4529
▁nearest	-4530
▁nervous	-4531
▁noticed	-4532
▁novelty	-4533
▁objects	-4534
▁ordered	-4535
▁outward	-4536
▁parlour	-4537
▁partial	-4538
▁passage	-4539
▁patient	-4540
▁penance	-4541
▁perplex	-4542
▁playing	-4543
▁portion	-4544
▁procure	-4545
▁proport	-4546
▁prudent	-4547
▁pursued	-4548
▁quicker	-4549
▁raising	-4550
▁reflect	-4551
▁regrets	-4552
▁remarks	-4553
▁resolve	-4554
▁retired	-4555
▁reverse	-4556
▁satisfy	-4557
▁seeking	-4558
▁seeming	-4559
▁singing	-4560
▁strange	-4561
▁thither	-4562
▁treated	-4563
▁triumph	-4564
▁utility	-4565
▁wearing	-4566
▁windows	-4567
▁wonders	-4568
▁zealous	-4569
Certainly	-4570
ossession	-4571
▁Grappler	-4572
▁Robinson	-4573
▁Thirteen	-4574
▁Thursday	-4575
▁Yarmouth	-4576
▁accepted	-4577
▁admiring	-4578
▁agitated	-4579
▁alarming	-4580
▁arriving	-4581
▁breaking	-4582
▁breathed	-4583
▁brothers	-4584
▁catching	-4585
▁confined	-4586
▁confused	-4587
▁delicate	-4588
▁disgrace	-4589
▁distinct	-4590
▁emotions	-4591
▁engaging	-4592
▁entitled	-4593
▁entreaty	-4594
▁examined	-4595
▁examples	-4596
▁expenses	-4597
▁extravag	-4598
▁fourteen	-4599
▁generous	-4600
▁grandeur	-4601
▁guidance	-4602
▁helpless	-4603
▁honoured	-4604
▁humoured	-4605
▁improper	-4606
▁informed	-4607
▁instance	-4608
▁investig	-4609
▁jealousy	-4610
▁learning	-4611
▁listener	-4612
▁minutiae	-4613
▁nobility	-4614
▁officers	-4615
▁pardoned	-4616
▁persever	-4617
▁positive	-4618
▁practice	-4619
▁prepared	-4620
▁preserve	-4621
▁previous	-4622
▁progress	-4623
▁prompted	-4624
▁provided	-4625
▁rapidity	-4626
▁recently	-4627
▁relative	-4628
▁released	-4629
▁relieved	-4630
▁removals	-4631
▁removing	-4632
▁scruples	-4633
▁settling	-4634
▁sickness	-4635
▁softened	-4636
▁somewhat	-4637
▁stepping	-4638
▁suitable	-4639
▁sympathy	-4640
▁thankful	-4641
▁thirteen	-4642
▁throwing	-4643
▁unfairly	-4644
▁unreason	-4645
▁wondered	-4646
▁yielding	-4647
estionably	-4648
▁Christian	-4649
▁Gibraltar	-4650
▁abilities	-4651
▁accepting	-4652
▁addressed	-4653
▁addresses	-4654
▁adjoining	-4655
▁afflicted	-4656
▁affluence	-4657
▁afternoon	-4658
▁allowance	-4659
▁apologies	-4660
▁appearing	-4661
▁appointed	-4662
▁assiduous	-4663
▁attempted	-4664
▁blessings	-4665
▁buildings	-4666
▁comparing	-4667
▁conceived	-4668
▁concluded	-4669
▁condition	-4670
▁confident	-4671
▁continual	-4672
▁courteous	-4673
▁creatures	-4674
▁declining	-4675
▁deference	-4676
▁discerned	-4677
▁encounter	-4678
▁engrossed	-4679
▁excusable	-4680
▁existence	-4681
▁expecting	-4682
▁fashioned	-4683
▁happening	-4684
▁ignorance	-4685
▁imprudent	-4686
▁injustice	-4687
▁interview	-4688
▁involving	-4689
▁meanwhile	-4690
▁observant	-4691
▁operation	-4692
▁perpetual	-4693
▁pleasures	-4694
▁prevailed	-4695
▁professed	-4696
▁prospects	-4697
▁protested	-4698
▁questions	-4699
▁readiness	-4700
▁reception	-4701
▁reconcile	-4702
▁repeating	-4703
▁scattered	-4704
▁seventeen	-4705
▁slightest	-4706
▁solicited	-4707
▁stationed	-4708
▁suggested	-4709
▁supported	-4710
▁thousands	-4711
▁tolerably	-4712
▁unwelcome	-4713
▁unwilling	-4714
▁varieties	-4715
▁whispered	-4716
▁withstand	-4717
▁wonderful	-4718
▁wondering	-4719
▁Michaelmas	-4720
▁Portsmouth	-4721
▁Providence	-4722
▁Shropshire	-4723
▁additional	-4724
▁addressing	-4725
▁affections	-4726
▁affliction	-4727
▁alteration	-4728
▁approached	-4729
▁attendance	-4730
▁bewitching	-4731
▁calculated	-4732
▁cheerfully	-4733
▁complaints	-4734
▁conference	-4735
▁containing	-4736
▁contradict	-4737
▁discretion	-4738
▁discussion	-4739
▁disrespect	-4740
▁dreadfully	-4741
▁enthusiasm	-4742
▁everywhere	-4743
▁excellence	-4744
▁fastidious	-4745
▁honourable	-4746
▁increasing	-4747
▁inevitably	-4748
▁insensible	-4749
▁instrument	-4750
▁interested	-4751
▁intimately	-4752
▁liberality	-4753
▁mentioning	-4754
▁newspapers	-4755
▁originally	-4756
▁perception	-4757
▁perfection	-4758
▁pleasanter	-4759
▁preferring	-4760
▁principles	-4761
▁questioned	-4762
▁regretting	-4763
▁remarkably	-4764
▁resentment	-4765
▁restraints	-4766
▁sacrifices	-4767
▁solicitous	-4768
▁sufferings	-4769
▁suppressed	-4770
▁surrounded	-4771
▁suspicious	-4772
▁thoughtful	-4773
▁unaffected	-4774
▁aggravation	-4775
▁ascertained	-4776
▁communicate	-4777
▁disappeared	-4778
▁distinction	-4779
▁endeavoured	-4780
▁engagements	-4781
▁fashionable	-4782
▁hospitality	-4783
▁imagination	-4784
▁indignation	-4785
▁practicable	-4786
▁preparation	-4787
▁probability	-4788
▁professions	-4789
▁recommended	-4790
▁resignation	-4791
▁spontaneous	-4792
▁supposition	-4793
▁troublesome	-4794
▁twelvemonth	-4795
▁unconscious	-4796
▁unfortunate	-4797
▁affectionate	-4798
▁descriptions	-4799
▁disagreeable	-4800
▁exclamations	-4801
▁intelligible	-4802
▁overpowering	-4803
▁recollecting	-4804
▁tranquillity	-4805
▁accommodation	-4806
▁apprehensions	-4807
▁contemplation	-4808
▁indisposition	-4809
▁instinctively	-4810
▁affectionately	-4811
▁disapprobation	-4812
▁unquestionably	-4813
!—	-4814
!’	-4815
.—	-4816
18	-4817
By	-4818
Ha	-4819
IO	-4820
bl	-4821
cy	-4822
eb	-4823
ex	-4824
ey	-4825
gl	-4826
ns	-4827
sm	-4828
ts	-4829
uv	-4830
vi	-4831
——	-4832
▁2	-4833
▁—	-4834
;—“	-4835
All	-4836
Don	-4837
ELL	-4838
For	-4839
Gia	-4840
IOT	-4841
Nay	-4842
Our	-4843
ait	-4844
alf	-4845
ari	-4846
arp	-4847
att	-4848
bon	-4849
cel	-4850
che	-4851
com	-4852
cst	-4853
cur	-4854
dic	-4855
did	-4856
dle	-4857
dom	-4858
don	-4859
emp	-4860
ets	-4861
ger	-4862
had	-4863
inu	-4864
irm	-4865
irs	-4866
lis	-4867
mal	-4868
mbl	-4869
oat	-4870
ohn	-4871
pal	-4872
raf	-4873
rec	-4874
rim	-4875
sey	-4876
uch	-4877
uly	-4878
ums	-4879
ute	-4880
war	-4881
was	-4882
who	-4883
zen	-4884
œuv	-4885
▁1,	-4886
▁Ay	-4887
▁Br	-4888
▁IV	-4889
▁IX	-4890
▁Ir	-4891
▁Qu	-4892
▁Tr	-4893
▁ca	-4894
▁ga	-4895
▁oh	-4896
▁“_	-4897
Here	-4898
Only	-4899
._	-4900
ph	-4901
cia	-4902
cip	-4903
hia	-4904
rch	-4905
uls	-4906
vol	-4907
Have	-4908
Phoo	-4909
Pray	-4910
True	-4911
West	-4912
Your	-4913
abby	-4914
agra	-4915
anda	-4916
arah	-4917
ards	-4918
ares	-4919
aten	-4920
atic	-4921
bone	-4922
bred	-4923
cary	-4924
ches	-4925
cing	-4926
clot	-4927
curt	-4928
dded	-4929
does	-4930
ears	-4931
ebru	-4932
elty	-4933
enti	-4934
eyed	-4935
hand	-4936
iesc	-4937
incl	-4938
ists	-4939
iter	-4940
itud	-4941
iver	-4942
kher	-4943
luck	-4944
lves	-4945
olar	-4946
once	-4947
orse	-4948
orty	-4949
oses	-4950
oves	-4951
part	-4952
qual	-4953
rate	-4954
reck	-4955
rewd	-4956
rief	-4957
ront	-4958
rows	-4959
ruit	-4960
scru	-4961
seen	-4962
stin	-4963
stru	-4964
tern	-4965
ters	-4966
this	-4967
thro	-4968
ucky	-4969
umed	-4970
uses	-4971
uten	-4972
vion	-4973
welt	-4974
yard	-4975
▁181	-4976
▁Ali	-4977
▁Any	-4978
▁Are	-4979
▁Aug	-4980
▁Bet	-4981
▁Did	-4982
▁Gay	-4983
▁Hon	-4984
▁Ire	-4985
▁Lar	-4986
▁Lis	-4987
▁Mor	-4988
▁Two	-4989
▁VII	-4990
▁XIV	-4991
▁XIX	-4992
▁XVI	-4993
▁aid	-4994
▁amb	-4995
▁aud	-4996
▁aug	-4997
▁bal	-4998
▁ban	-4999
ye	-5000
let	-5001
net	-5002
spo	-5003
acks	-5004
eave	-5005
fice	-5006
must	-5007
nine	-5008
orum	-5009
pocr	-5010
umes	-5011
vass	-5012
▁III	-5013
▁Pen	-5014
▁bat	-5015
▁bay	-5016
▁bru	-5017
▁cat	-5018
▁dab	-5019
▁ens	-5020
▁fra	-5021
▁fur	-5022
▁gad	-5023
▁gig	-5024
▁gle	-5025
▁hat	-5026
▁hes	-5027
▁hey	-5028
▁hot	-5029
▁lat	-5030
▁lea	-5031
▁mil	-5032
▁mix	-5033
▁orc	-5034
▁pac	-5035
▁pop	-5036
▁red	-5037
▁sed	-5038
▁sen	-5039
▁spr	-5040
▁tal	-5041
▁top	-5042
▁umb	-5043
▁unv	-5044
▁ver	-5045
▁wed	-5046
▁wet	-5047
▁won	-5048
Thank	-5049
alled	-5050
amped	-5051
anity	-5052
arity	-5053
atisf	-5054
bates	-5055
blood	-5056
clock	-5057
doors	-5058
elope	-5059
ening	-5060
eries	-5061
erous	-5062
forte	-5063
grant	-5064
heard	-5065
hened	-5066
ibald	-5067
icule	-5068
idity	-5069
inded	-5070
inder	-5071
iring	-5072
irons	-5073
isive	-5074
lisse	-5075
males	-5076
mamma	-5077
mples	-5078
oices	-5079
olded	-5080
ollar	-5081
olles	-5082
ouded	-5083
ounce	-5084
persu	-5085
piece	-5086
point	-5087
pting	-5088
raits	-5089
redit	-5090
reeze	-5091
ribut	-5092
ridge	-5093
spons	-5094
stead	-5095
suade	-5096
udder	-5097
uming	-5098
union	-5099
AR	-5100
Mrs	-5101
▁Gl	-5102
When	-5103
ague	-5104
bers	-5105
ngue	-5106
orms	-5107
vial	-5108
▁Nay	-5109
▁dup	-5110
berry	-5111
eeper	-5112
erson	-5113
igned	-5114
licit	-5115
losed	-5116
mbled	-5117
retch	-5118
since	-5119
urely	-5120
ution	-5121
▁Both	-5122
▁Brig	-5123
▁Come	-5124
▁Crew	-5125
▁Dare	-5126
▁Dear	-5127
▁Each	-5128
▁East	-5129
▁Fact	-5130
▁Give	-5131
▁Good	-5132
▁Half	-5133
▁Ives	-5134
▁John	-5135
▁July	-5136
▁Know	-5137
▁Many	-5138
▁Mark	-5139
▁Park	-5140
▁Pump	-5141
▁Tell	-5142
▁Till	-5143
▁VIII	-5144
▁XIII	-5145
▁XVII	-5146
▁XXII	-5147
▁XXIV	-5148
▁adie	-5149
▁anew	-5150
▁argu	-5151
▁bare	-5152
▁benc	-5153
▁blue	-5154
▁bold	-5155
▁bows	-5156
▁buzz	-5157
▁coun	-5158
▁deny	-5159
▁dict	-5160
▁dogs	-5161
▁dues	-5162
▁elig	-5163
▁envy	-5164
▁feet	-5165
▁fing	-5166
▁flow	-5167
▁fund	-5168
▁goes	-5169
▁goss	-5170
▁grac	-5171
▁heav	-5172
▁hide	-5173
▁holl	-5174
▁hung	-5175
▁hunt	-5176
▁inad	-5177
▁inde	-5178
▁inex	-5179
▁inim	-5180
▁inns	-5181
▁insp	-5182
▁lawy	-5183
▁lead	-5184
▁lend	-5185
▁lent	-5186
▁lest	-5187
▁merc	-5188
▁mult	-5189
▁narr	-5190
▁nose	-5191
▁omit	-5192
▁ones	-5193
▁ours	-5194
▁page	-5195
▁park	-5196
▁phoo	-5197
▁pier	-5198
▁plag	-5199
In	-5200
Had	-5201
▁VI	-5202
▁av	-5203
atre	-5204
otto	-5205
▁XII	-5206
▁cun	-5207
These	-5208
astic	-5209
ernal	-5210
erned	-5211
ivity	-5212
their	-5213
▁Arch	-5214
▁Deal	-5215
▁ecst	-5216
▁inno	-5217
▁pron	-5218
▁quar	-5219
▁ribb	-5220
▁roof	-5221
▁rubb	-5222
▁scre	-5223
▁shif	-5224
▁show	-5225
▁simp	-5226
▁sixt	-5227
▁spar	-5228
▁stre	-5229
▁stup	-5230
▁surm	-5231
▁tend	-5232
▁term	-5233
▁thin	-5234
▁tide	-5235
▁tied	-5236
▁toil	-5237
▁trem	-5238
▁unfe	-5239
▁ungr	-5240
▁ungu	-5241
▁unso	-5242
▁vary	-5243
▁virt	-5244
▁wood	-5245
▁wore	-5246
Giaour	-5247
Though	-5248
achery	-5249
adable	-5250
advant	-5251
agraph	-5252
ailing	-5253
anging	-5254
anting	-5255
arting	-5256
atters	-5257
beaten	-5258
cation	-5259
coming	-5260
ection	-5261
enting	-5262
enuous	-5263
ercise	-5264
establ	-5265
except	-5266
father	-5267
fering	-5268
ficacy	-5269
ficial	-5270
haired	-5271
hestra	-5272
iently	-5273
ignant	-5274
imilar	-5275
import	-5276
iority	-5277
irting	-5278
isting	-5279
itions	-5280
itudes	-5281
kherne	-5282
lanted	-5283
liance	-5284
licate	-5285
manage	-5286
nected	-5287
omfort	-5288
racted	-5289
served	-5290
thened	-5291
though	-5292
ulated	-5293
urious	-5294
utting	-5295
vances	-5296
verses	-5297
volent	-5298
▁Bless	-5299
▁shot	-5300
▁Eight	-5301
▁Facts	-5302
▁Henry	-5303
▁Irish	-5304
▁Leave	-5305
▁Lucky	-5306
▁Money	-5307
▁Never	-5308
▁Sarah	-5309
▁Scott	-5310
▁Shall	-5311
▁Still	-5312
▁Thank	-5313
▁Thorn	-5314
▁Three	-5315
▁XVIII	-5316
▁XXIII	-5317
▁acted	-5318
▁alien	-5319
▁aloud	-5320
▁amaze	-5321
▁amend	-5322
▁ample	-5323
▁anger	-5324
▁apace	-5325
▁apply	-5326
▁aside	-5327
▁await	-5328
▁barns	-5329
▁blows	-5330
▁boast	-5331
▁boots	-5332
▁bound	-5333
▁bowed	-5334
▁brain	-5335
▁brief	-5336
▁broad	-5337
▁build	-5338
▁built	-5339
▁cling	-5340
▁coach	-5341
▁compr	-5342
▁court	-5343
▁dated	-5344
▁depri	-5345
▁dozen	-5346
▁dwelt	-5347
▁enfor	-5348
▁estim	-5349
▁exult	-5350
▁faint	-5351
▁felic	-5352
▁fever	-5353
▁final	-5354
▁floor	-5355
▁forms	-5356
▁frank	-5357
▁fruit	-5358
▁gloom	-5359
▁gouty	-5360
▁green	-5361
▁gross	-5362
▁guide	-5363
▁haste	-5364
▁hasty	-5365
▁heavy	-5366
▁hills	-5367
▁horri	-5368
▁indec	-5369
▁inexp	-5370
▁knelt	-5371
▁likes	-5372
▁loves	-5373
▁lying	-5374
▁madam	-5375
▁mirth	-5376
▁miser	-5377
▁mixed	-5378
▁modes	-5379
▁motto	-5380
▁needs	-5381
▁noble	-5382
▁north	-5383
▁overt	-5384
▁parts	-5385
▁plans	-5386
▁plead	-5387
▁prett	-5388
▁prime	-5389
▁print	-5390
▁privy	-5391
▁prose	-5392
▁purch	-5393
▁raise	-5394
▁rated	-5395
▁refor	-5396
▁renew	-5397
▁rocks	-5398
▁rouse	-5399
▁sakes	-5400
▁sandy	-5401
▁sangu	-5402
▁seats	-5403
▁sharp	-5404
▁solem	-5405
▁stock	-5406
▁study	-5407
▁suits	-5408
▁teaze	-5409
▁threw	-5410
▁throw	-5411
▁tones	-5412
▁tooth	-5413
▁trace	-5414
▁trees	-5415
▁trick	-5416
▁turns	-5417
▁uneas	-5418
▁unfor	-5419
▁unpre	-5420
▁upset	-5421
▁usage	-5422
▁using	-5423
▁utter	-5424
▁walks	-5425
▁walls	-5426
▁white	-5427
▁wives	-5428
Colonel	-5429
adation	-5430
agement	-5431
ameness	-5432
ariably	-5433
athetic	-5434
clothes	-5435
command	-5436
denying	-5437
ealousy	-5438
earance	-5439
ebruary	-5440
ensical	-5441
ensions	-5442
entered	-5443
entieth	-5444
eration	-5445
fortune	-5446
glasses	-5447
ificant	-5448
incipal	-5449
itherto	-5450
iversal	-5451
judging	-5452
lighted	-5453
mblance	-5454
natured	-5455
ounding	-5456
ourable	-5457
oveable	-5458
perhaps	-5459
pocrite	-5460
ression	-5461
servant	-5462
settled	-5463
shipmen	-5464
smiling	-5465
ularity	-5466
ulously	-5467
unction	-5468
urances	-5469
utation	-5470
utenant	-5471
wrought	-5472
▁Alicia	-5473
▁August	-5474
▁Either	-5475
▁French	-5476
▁Having	-5477
▁Lisbon	-5478
▁Should	-5479
▁Smiths	-5480
▁Sophia	-5481
▁Sunday	-5482
▁Twelve	-5483
▁abused	-5484
▁action	-5485
▁apothe	-5486
▁artful	-5487
▁ascent	-5488
▁ashore	-5489
▁bodily	-5490
▁breeze	-5491
▁brings	-5492
▁buried	-5493
▁butler	-5494
▁calmly	-5495
▁centre	-5496
▁charge	-5497
▁cliffs	-5498
▁coarse	-5499
▁collar	-5500
▁custom	-5501
▁deeper	-5502
▁defici	-5503
▁delays	-5504
▁derive	-5505
▁desper	-5506
▁diseng	-5507
▁dissip	-5508
▁distur	-5509
▁divide	-5510
▁doctor	-5511
▁embell	-5512
▁extent	-5513
▁extenu	-5514
▁falter	-5515
▁farmer	-5516
▁faults	-5517
▁finest	-5518
▁fitted	-5519
▁flying	-5520
▁freely	-5521
▁gaiety	-5522
▁gifted	-5523
▁gloves	-5524
▁glowed	-5525
▁gossip	-5526
▁govern	-5527
▁groves	-5528
▁hoping	-5529
▁housek	-5530
▁humble	-5531
▁imagin	-5532
▁impart	-5533
▁incomp	-5534
▁incons	-5535
▁infirm	-5536
▁inquir	-5537
▁insign	-5538
▁insinu	-5539
▁joyous	-5540
▁jumped	-5541
▁keenly	-5542
▁landed	-5543
▁larger	-5544
▁lawyer	-5545
▁laying	-5546
▁leaves	-5547
▁lesser	-5548
▁limits	-5549
▁losing	-5550
▁manœuv	-5551
▁meadow	-5552
▁middle	-5553
▁missed	-5554
▁modern	-5555
▁nation	-5556
▁nights	-5557
▁nodded	-5558
▁obeyed	-5559
▁obstin	-5560
▁occupy	-5561
▁orders	-5562
▁pained	-5563
▁papers	-5564
▁parcel	-5565
▁parson	-5566
▁patron	-5567
▁paused	-5568
▁plants	-5569
▁prover	-5570
▁rained	-5571
▁ranked	-5572
▁ration	-5573
▁refuse	-5574
▁relate	-5575
▁relied	-5576
▁remove	-5577
▁repuls	-5578
▁reward	-5579
▁ruined	-5580
▁saving	-5581
▁seized	-5582
▁sequel	-5583
▁shares	-5584
▁showed	-5585
▁shrewd	-5586
▁smooth	-5587
▁soften	-5588
▁solely	-5589
▁speaks	-5590
▁specul	-5591
▁states	-5592
▁storms	-5593
▁subdue	-5594
▁surely	-5595
▁sweets	-5596
▁testim	-5597
▁tongue	-5598
▁topics	-5599
▁transp	-5600
▁unconc	-5601
▁uneasy	-5602
▁unluck	-5603
▁unseen	-5604
▁vacant	-5605
▁vigour	-5606
▁voices	-5607
▁walker	-5608
▁wealth	-5609
▁wholly	-5610
Westgate	-5611
angement	-5612
curtains	-5613
iescence	-5614
pointing	-5615
quishing	-5616
stantial	-5617
unctions	-5618
▁Between	-5619
▁Brigden	-5620
▁Instead	-5621
▁Ireland	-5622
▁Perhaps	-5623
▁Whether	-5624
▁Without	-5625
▁actions	-5626
▁advised	-5627
▁affront	-5628
▁appreci	-5629
▁arising	-5630
▁attract	-5631
▁averted	-5632
▁bearing	-5633
▁becomes	-5634
▁bedroom	-5635
▁benches	-5636
▁blunder	-5637
▁blushed	-5638
▁boasted	-5639
▁butcher	-5640
▁canvass	-5641
▁capital	-5642
▁chanced	-5643
▁charity	-5644
▁charmed	-5645
▁checked	-5646
▁chiefly	-5647
▁climate	-5648
▁clouded	-5649
▁contact	-5650
▁contend	-5651
▁counsel	-5652
▁counter	-5653
▁crossed	-5654
▁crowded	-5655
▁cruelty	-5656
▁cunning	-5657
▁curtsey	-5658
▁deceive	-5659
▁decline	-5660
▁decorum	-5661
▁defence	-5662
▁degrees	-5663
▁designs	-5664
▁desired	-5665
▁despond	-5666
▁devoted	-5667
▁dictate	-5668
▁disincl	-5669
▁dreaded	-5670
▁durable	-5671
▁dutiful	-5672
▁ecstasy	-5673
▁efforts	-5674
▁example	-5675
▁exerted	-5676
▁expense	-5677
▁exposed	-5678
▁fatigue	-5679
▁females	-5680
▁filling	-5681
▁fingers	-5682
▁foolish	-5683
▁foreign	-5684
▁forgets	-5685
▁forgive	-5686
▁further	-5687
▁gardens	-5688
▁glances	-5689
▁gloried	-5690
▁gradual	-5691
▁guessed	-5692
▁healthy	-5693
▁heavens	-5694
▁honesty	-5695
▁justify	-5696
▁laundry	-5697
▁lessons	-5698
▁liberal	-5699
▁limited	-5700
▁lodging	-5701
▁lowness	-5702
▁measure	-5703
▁modesty	-5704
▁motives	-5705
▁musings	-5706
▁nursing	-5707
▁offence	-5708
▁offices	-5709
▁omitted	-5710
▁opposed	-5711
▁orchard	-5712
▁pelisse	-5713
▁pensive	-5714
▁pitiful	-5715
▁praised	-5716
▁prepare	-5717
▁pressed	-5718
▁presume	-5719
▁process	-5720
▁profess	-5721
▁project	-5722
▁promote	-5723
▁provoke	-5724
▁pushing	-5725
▁reduced	-5726
▁refusal	-5727
▁repeats	-5728
▁request	-5729
▁require	-5730
▁reserve	-5731
▁respons	-5732
▁results	-5733
▁revival	-5734
▁revived	-5735
▁schemes	-5736
▁scholar	-5737
▁shewing	-5738
▁shortly	-5739
▁shudder	-5740
▁sixteen	-5741
▁slipped	-5742
▁somehow	-5743
▁sounded	-5744
▁species	-5745
▁stamped	-5746
▁staring	-5747
▁started	-5748
▁stepped	-5749
▁stories	-5750
▁stretch	-5751
▁talents	-5752
▁temples	-5753
▁theatre	-5754
▁thicker	-5755
▁torment	-5756
▁touched	-5757
▁trivial	-5758
▁trusted	-5759
▁umbrell	-5760
▁undesir	-5761
▁unequal	-5762
▁uniting	-5763
▁unknown	-5764
▁ushered	-5765
▁variety	-5766
▁veranda	-5767
▁violent	-5768
▁virtues	-5769
▁visible	-5770
▁visions	-5771
▁visitor	-5772
▁volumes	-5773
▁warmest	-5774
▁wedding	-5775
▁widower	-5776
▁wounded	-5777
▁yielded	-5778
Elizabeth	-5779
Wentworth	-5780
ardonable	-5781
ibilities	-5782
intention	-5783
▁Captains	-5784
▁Jealousy	-5785
▁Larolles	-5786
▁Penelope	-5787
▁Wallises	-5788
▁accompan	-5789
▁activity	-5790
▁advising	-5791
▁afforded	-5792
▁announce	-5793
▁appealed	-5794
▁applying	-5795
▁approved	-5796
▁argument	-5797
▁articles	-5798
▁asserted	-5799
▁attribut	-5800
▁behaving	-5801
▁blooming	-5802
▁blushing	-5803
▁checking	-5804
▁choosing	-5805
▁coldness	-5806
▁conceive	-5807
▁conclude	-5808
▁converse	-5809
▁cousinly	-5810
▁crossing	-5811
▁desirous	-5812
▁devotion	-5813
▁directed	-5814
▁discover	-5815
▁disposal	-5816
▁dissuade	-5817
▁division	-5818
▁dreading	-5819
▁dressing	-5820
▁educated	-5821
▁efficacy	-5822
▁elevated	-5823
▁environs	-5824
▁esteemed	-5825
▁exercise	-5826
▁explains	-5827
▁exposing	-5828
▁fearless	-5829
▁finances	-5830
▁finished	-5831
▁firmness	-5832
▁flattery	-5833
▁foreseen	-5834
▁grandson	-5835
▁hardened	-5836
▁hardship	-5837
▁heartily	-5838
▁heedless	-5839
▁ignorant	-5840
▁inquired	-5841
▁intently	-5842
▁internal	-5843
▁ladyship	-5844
▁landlady	-5845
▁landlord	-5846
▁likewise	-5847
▁mildness	-5848
▁moderate	-5849
▁mortific	-5850
▁negative	-5851
▁numerous	-5852
▁oblivion	-5853
▁original	-5854
▁outlived	-5855
▁pictures	-5856
▁poetical	-5857
▁pointing	-5858
▁pressing	-5859
▁presumed	-5860
▁pretence	-5861
▁promises	-5862
▁propriet	-5863
▁quarrell	-5864
▁quarters	-5865
▁raptures	-5866
▁reaching	-5867
▁reasoned	-5868
▁regarded	-5869
▁renewing	-5870
▁replying	-5871
▁requires	-5872
▁reserved	-5873
▁reverted	-5874
▁ridicule	-5875
▁sanguine	-5876
▁scheming	-5877
▁secondly	-5878
▁securing	-5879
▁sensibly	-5880
▁sentence	-5881
▁shocking	-5882
▁slighted	-5883
▁sporting	-5884
▁standard	-5885
▁strongly	-5886
▁supports	-5887
▁symptoms	-5888
▁tendency	-5889
▁unmanage	-5890
▁unsatisf	-5891
▁vexation	-5892
▁viscount	-5893
▁visiting	-5894
▁withdraw	-5895
omfortable	-5896
possession	-5897
rehensible	-5898
scrupulous	-5899
▁Archibald	-5900
▁Charmouth	-5901
▁Something	-5902
▁agreement	-5903
▁amazement	-5904
▁apartment	-5905
▁apologize	-5906
▁apprehend	-5907
▁assertion	-5908
▁assisting	-5909
▁attaching	-5910
▁baronetcy	-5911
▁betraying	-5912
▁carriages	-5913
▁commander	-5914
▁complaint	-5915
▁concealed	-5916
▁confirmed	-5917
▁consented	-5918
▁consisted	-5919
▁contented	-5920
▁contribut	-5921
▁contrived	-5922
▁creations	-5923
▁curtailed	-5924
▁deception	-5925
▁declaring	-5926
▁degrading	-5927
▁dependent	-5928
▁designing	-5929
▁directing	-5930
▁disadvant	-5931
▁discourse	-5932
▁discovery	-5933
▁discredit	-5934
▁disparity	-5935
▁elsewhere	-5936
▁enquiring	-5937
▁exception	-5938
▁extension	-5939
▁extensive	-5940
▁foresight	-5941
▁fortunate	-5942
▁governess	-5943
▁handsomer	-5944
▁hesitated	-5945
▁household	-5946
▁hypocrite	-5947
▁imaginary	-5948
▁imperfect	-5949
▁improving	-5950
▁innoxious	-5951
▁interests	-5952
▁introduce	-5953
▁justified	-5954
▁lamenting	-5955
▁lingering	-5956
▁marriages	-5957
▁moralists	-5958
▁neglected	-5959
▁occasions	-5960
▁offensive	-5961
▁oppressed	-5962
▁orchestra	-5963
▁paragraph	-5964
▁partially	-5965
▁perceived	-5966
▁persisted	-5967
▁pointedly	-5968
▁portraits	-5969
▁prejudice	-5970
▁premature	-5971
▁presiding	-5972
▁pretended	-5973
▁projected	-5974
▁promotion	-5975
▁properest	-5976
▁proposals	-5977
▁qualified	-5978
▁reasoning	-5979
▁reckoning	-5980
▁rejoicing	-5981
▁rejoinder	-5982
▁relenting	-5983
▁reluctant	-5984
▁remainder	-5985
▁requested	-5986
▁resenting	-5987
▁respected	-5988
▁revolting	-5989
▁revolving	-5990
▁sacrifice	-5991
▁seniority	-5992
▁sincerely	-5993
▁strolling	-5994
▁surprises	-5995
▁transient	-5996
▁traveller	-5997
▁treachery	-5998
▁unfounded	-5999
▁unguarded	-6000
▁universal	-6001
▁willingly	-6002
established	-6003
▁Baronetage	-6004
▁Crewkherne	-6005
▁Honourable	-6006
▁Thornberry	-6007
▁acceptable	-6008
▁apartments	-6009
▁apothecary	-6010
▁beforehand	-6011
▁benevolent	-6012
▁brilliancy	-6013
▁characters	-6014
▁charitable	-6015
▁collecting	-6016
▁commission	-6017
▁compatible	-6018
▁compliance	-6019
▁composedly	-6020
▁compounded	-6021
▁compromise	-6022
▁concerning	-6023
▁concluding	-6024
▁condolence	-6025
▁consistent	-6026
▁contrasted	-6027
▁conversing	-6028
▁creditable	-6029
▁cultivated	-6030
▁descending	-6031
▁directions	-6032
▁discerning	-6033
▁disordered	-6034
▁dissimilar	-6035
▁distinctly	-6036
▁enjoyments	-6037
▁entreaties	-6038
▁exceptions	-6039
▁exclaiming	-6040
▁exultation	-6041
▁foreseeing	-6042
▁forgetting	-6043
▁frightened	-6044
▁generosity	-6045
▁graciously	-6046
▁heightened	-6047
▁hereabouts	-6048
▁hesitation	-6049
▁immoveable	-6050
▁impatience	-6051
▁inconstant	-6052
▁inevitable	-6053
▁invariably	-6054
▁irresolute	-6055
▁irritation	-6056
▁lieutenant	-6057
▁maintained	-6058
▁materially	-6059
▁midshipmen	-6060
▁misconstru	-6061
▁misfortune	-6062
▁mortifying	-6063
▁occasioned	-6064
▁overlooked	-6065
▁overpowers	-6066
▁peculiarly	-6067
▁penetrated	-6068
▁perplexity	-6069
▁preserving	-6070
▁prevailing	-6071
▁preventing	-6072
▁privileges	-6073
▁pronounced	-6074
▁prosperous	-6075
▁protection	-6076
▁protesting	-6077
▁punctually	-6078
▁quotations	-6079
▁reductions	-6080
▁resolutely	-6081
▁sacrificed	-6082
▁scrupulous	-6083
▁situations	-6084
▁steadiness	-6085
▁studiously	-6086
▁successive	-6087
▁supporting	-6088
▁suspension	-6089
▁travelling	-6090
▁undertakes	-6091
▁uneasiness	-6092
▁unexpected	-6093
▁whispering	-6094
▁witnessing	-6095
▁yourselves	-6096
▁accommodate	-6097
▁anticipated	-6098
▁appearances	-6099
▁attachments	-6100
▁attractions	-6101
▁confinement	-6102
▁conjectured	-6103
▁connections	-6104
▁contemplate	-6105
▁declaration	-6106
▁degradation	-6107
▁destination	-6108
▁entertained	-6109
▁extenuation	-6110
▁extravagant	-6111
▁forbearance	-6112
▁grandfather	-6113
▁independent	-6114
▁inferiority	-6115
▁interfering	-6116
▁necessarily	-6117
▁nonsensical	-6118
▁nothingness	-6119
▁observances	-6120
▁overpowered	-6121
▁penetrating	-6122
▁penetration	-6123
▁perceptible	-6124
▁permanently	-6125
▁presumptive	-6126
▁pretensions	-6127
▁proportions	-6128
▁reflections	-6129
▁reformation	-6130
▁regulations	-6131
▁responsible	-6132
▁shrubberies	-6133
▁solicitudes	-6134
▁substantial	-6135
▁suggestions	-6136
▁sympathetic	-6137
▁unconcerned	-6138
▁unconnected	-6139
▁unqualified	-6140
▁uprightness	-6141
intentionally	-6142
▁accomplished	-6143
▁acquiescence	-6144
▁anticipating	-6145
▁apprehension	-6146
▁ascertaining	-6147
▁associations	-6148
▁confirmation	-6149
▁consequences	-6150
▁contemplated	-6151
▁contemptuous	-6152
▁entertaining	-6153
▁estrangement	-6154
▁expectations	-6155
▁friendliness	-6156
▁imaginations	-6157
▁improvements	-6158
▁observations	-6159
▁partialities	-6160
▁perseverance	-6161
▁preparations	-6162
▁publications	-6163
▁representing	-6164
▁strengthened	-6165
▁unmanageable	-6166
▁unpardonable	-6167
▁watchfulness	-6168
▁wretchedness	-6169
▁comprehending	-6170
▁comprehensive	-6171
▁correspondent	-6172
▁embarrassment	-6173
▁establishment	-6174
▁gentlemanlike	-6175
▁impossibility	-6176
▁insignificant	-6177
▁opportunities	-6178
▁relinquishing	-6179
▁uncomfortable	-6180
▁unconsciously	-6181
▁unfortunately	-6182
▁correspondence	-6183
▁embarrassments	-6184
▁mortifications	-6185
▁representation	-6186
▁unsatisfactory	-6187
▁acknowledgement	-6188
▁disappointments	-6189
▁disrespectfully	-6190
▁recommendations	-6191
,)—	-6192
18)	-6193
Any	-6194
Aye	-6195
MAR	-6196
byd	-6197
egr	-6198
evi	-6199
loc	-6200
uff	-6201
ugd	-6202
——;	-6203
▁29	-6204
▁5,	-6205
.—,”	-6206
ELLY	-6207
MARY	-6208
Quit	-6209
alts	-6210
argo	-6211
beck	-6212
clat	-6213
coat	-6214
disp	-6215
ecut	-6216
grat	-6217
hung	-6218
leep	-6219
loat	-6220
odec	-6221
oirs	-6222
petr	-6223
surd	-6224
time	-6225
uffs	-6226
umsy	-6227
urdy	-6228
whom	-6229
▁(18	-6230
▁176	-6231
▁Exe	-6232
▁err	-6233
▁key	-6234
▁ski	-6235
▁tea	-6236
▁—5,	-6237
._——;	-6238
ELLYN	-6239
Forty	-6240
LLIOT	-6241
aulet	-6242
being	-6243
bydos	-6244
cases	-6245
check	-6246
cipit	-6247
comed	-6248
crows	-6249
ednes	-6250
empli	-6251
faced	-6252
gency	-6253
given	-6254
grown	-6255
happy	-6256
heraz	-6257
impro	-6258
impse	-6259
izure	-6260
laced	-6261
natur	-6262
noble	-6263
oards	-6264
ogany	-6265
ouche	-6266
racks	-6267
rafal	-6268
recip	-6269
riday	-6270
rimin	-6271
rinks	-6272
scure	-6273
ships	-6274
sized	-6275
speak	-6276
spoke	-6277
unged	-6278
uodec	-6279
uspic	-6280
▁1785	-6281
▁1787	-6282
▁1814	-6283
▁Alas	-6284
▁Dugd	-6285
▁Glou	-6286
▁Isle	-6287
▁Next	-6288
▁Nurs	-6289
▁Prec	-6290
▁Sail	-6291
▁Sche	-6292
▁Spic	-6293
▁Temp	-6294
▁Time	-6295
▁True	-6296
▁anec	-6297
▁angu	-6298
▁avar	-6299
awl	-6300
eps	-6301
,”—“	-6302
born	-6303
pses	-6304
tier	-6305
worn	-6306
▁baw	-6307
anean	-6308
steps	-6309
▁broo	-6310
▁damp	-6311
▁dawn	-6312
▁defe	-6313
▁defy	-6314
▁dirt	-6315
▁docu	-6316
▁dray	-6317
▁dung	-6318
▁flag	-6319
▁frag	-6320
▁frat	-6321
▁gale	-6322
▁gaze	-6323
▁glee	-6324
▁idly	-6325
▁ingr	-6326
▁keys	-6327
▁knit	-6328
▁laws	-6329
▁legs	-6330
▁libr	-6331
▁medi	-6332
▁mixt	-6333
▁obtr	-6334
▁pale	-6335
▁pins	-6336
▁redd	-6337
▁skin	-6338
▁slam	-6339
▁slip	-6340
▁sobs	-6341
▁swee	-6342
▁tale	-6343
▁teaz	-6344
▁unbe	-6345
▁vale	-6346
▁vext	-6347
▁wagg	-6348
ELLIOT	-6349
ELLYNC	-6350
Surely	-6351
absurd	-6352
achers	-6353
agrees	-6354
andums	-6355
beckon	-6356
beyond	-6357
boards	-6358
bridge	-6359
cester	-6360
comple	-6361
ducing	-6362
easter	-6363
ecutor	-6364
editer	-6365
encing	-6366
enuity	-6367
estern	-6368
holder	-6369
ienced	-6370
ievous	-6371
iguous	-6372
impses	-6373
kinson	-6374
lantic	-6375
leties	-6376
locked	-6377
master	-6378
minded	-6379
oicest	-6380
ossoms	-6381
owards	-6382
quares	-6383
rafalg	-6384
ranean	-6385
recked	-6386
ricane	-6387
rimony	-6388
ronted	-6389
sisted	-6390
spoken	-6391
spread	-6392
ternal	-6393
throat	-6394
turned	-6395
vading	-6396
velope	-6397
venson	-6398
vinced	-6399
uzz	-6400
rude	-6401
alcul	-6402
bling	-6403
▁Drew	-6404
▁puzz	-6405
Depend	-6406
arging	-6407
emplif	-6408
mbling	-6409
rewell	-6410
▁1760,	-6411
▁1785;	-6412
▁1787;	-6413
▁1810,	-6414
▁Alarm	-6415
▁Birth	-6416
▁Brand	-6417
▁Bride	-6418
▁Known	-6419
▁March	-6420
▁Queen	-6421
▁Straf	-6422
▁Troub	-6423
▁Vague	-6424
▁Wells	-6425
▁Women	-6426
▁Yours	-6427
▁abdic	-6428
▁acute	-6429
▁adieu	-6430
▁advis	-6431
▁ambit	-6432
▁anecd	-6433
▁augur	-6434
▁aunts	-6435
▁avert	-6436
▁bewit	-6437
▁bills	-6438
▁brook	-6439
▁choos	-6440
▁coars	-6441
▁crime	-6442
▁crown	-6443
▁debts	-6444
▁depos	-6445
▁disfa	-6446
▁diver	-6447
▁drays	-6448
▁dropt	-6449
▁eclat	-6450
▁error	-6451
▁exalt	-6452
▁fires	-6453
▁gifts	-6454
▁guilt	-6455
▁hairs	-6456
▁hazel	-6457
▁heats	-6458
▁holly	-6459
▁hotel	-6460
▁inatt	-6461
▁inexc	-6462
▁inexh	-6463
▁ingen	-6464
▁inhum	-6465
▁joins	-6466
▁level	-6467
▁liter	-6468
▁mercy	-6469
▁oddly	-6470
▁paced	-6471
▁paths	-6472
▁pitch	-6473
▁plump	-6474
▁poets	-6475
▁rains	-6476
▁rates	-6477
▁relig	-6478
▁revel	-6479
▁salts	-6480
▁scorn	-6481
▁seize	-6482
▁shawl	-6483
▁sheep	-6484
▁shift	-6485
▁shipw	-6486
▁shops	-6487
▁sighs	-6488
▁simpl	-6489
▁skilf	-6490
▁sleep	-6491
▁solid	-6492
▁solit	-6493
▁spots	-6494
▁squar	-6495
▁stern	-6496
▁stopt	-6497
▁stuff	-6498
▁sunsh	-6499
Why	-6500
hys	-6501
cont	-6502
erks	-6503
hunt	-6504
pres	-6505
▁rob	-6506
▁rod	-6507
▁rug	-6508
hysic	-6509
lands	-6510
luded	-6511
▁Cont	-6512
▁dash	-6513
▁patt	-6514
▁rode	-6515
▁rose	-6516
▁rule	-6517
▁rupt	-6518
▁tres	-6519
▁vari	-6520
▁varn	-6521
Pardon	-6522
arrang	-6523
contra	-6524
untary	-6525
▁Belie	-6526
▁Trent	-6527
▁Worse	-6528
▁acres	-6529
▁capes	-6530
▁capri	-6531
▁elder	-6532
▁emend	-6533
▁footp	-6534
▁griev	-6535
▁grove	-6536
▁merch	-6537
▁prote	-6538
▁swear	-6539
▁sweep	-6540
▁swept	-6541
▁taxes	-6542
▁tears	-6543
▁tires	-6544
▁trash	-6545
▁trays	-6546
▁treas	-6547
▁unemb	-6548
▁unpol	-6549
▁unsaf	-6550
▁unvis	-6551
▁urged	-6552
▁vague	-6553
▁valet	-6554
▁vanqu	-6555
▁vigor	-6556
▁wains	-6557
▁woody	-6558
▁works	-6559
▁wreck	-6560
Another	-6561
ELLYNCH	-6562
Putting	-6563
account	-6564
arrangé	-6565
aterial	-6566
azingly	-6567
bearing	-6568
bleness	-6569
blooded	-6570
ediment	-6571
emplify	-6572
eported	-6573
fashion	-6574
gulated	-6575
heshire	-6576
hunting	-6577
inarily	-6578
isonous	-6579
itering	-6580
ituated	-6581
ivalent	-6582
ivering	-6583
judiced	-6584
killing	-6585
lagrant	-6586
licting	-6587
ltimate	-6588
meaning	-6589
mployed	-6590
natched	-6591
natives	-6592
natural	-6593
ocratic	-6594
ommoded	-6595
ourneys	-6596
overnor	-6597
parties	-6598
perplex	-6599
mma	-6600
ansd	-6601
espe	-6602
ians	-6603
mmer	-6604
much	-6605
rape	-6606
▁rub	-6607
ansed	-6608
breed	-6609
owder	-6610
suing	-6611
veyor	-6612
▁Emma	-6613
▁Navy	-6614
▁Pict	-6615
▁corp	-6616
▁hurt	-6617
▁palt	-6618
▁push	-6619
adespe	-6620
akfast	-6621
esides	-6622
icians	-6623
lusion	-6624
temper	-6625
▁Lansd	-6626
▁bores	-6627
▁crape	-6628
▁divis	-6629
▁escap	-6630
▁indub	-6631
▁noseg	-6632
▁sides	-6633
besides	-6634
elusion	-6635
fullest	-6636
inguish	-6637
omposed	-6638
perusal	-6639
putting	-6640
quality	-6641
ranting	-6642
recated	-6643
recipro	-6644
reckles	-6645
rettier	-6646
rierson	-6647
sembled	-6648
strance	-6649
tencies	-6650
tleties	-6651
undance	-6652
underst	-6653
uodecim	-6654
ursions	-6655
venting	-6656
vertise	-6657
viation	-6658
weighed	-6659
whether	-6660
writing	-6661
▁Abydos	-6662
▁Doming	-6663
▁ELLIOT	-6664
▁Exeter	-6665
▁Friday	-6666
▁Market	-6667
▁Master	-6668
▁Mutual	-6669
▁Shabby	-6670
▁Sophys	-6671
▁Surely	-6672
▁Temple	-6673
▁Thames	-6674
▁Unjust	-6675
▁Vanity	-6676
▁Wednes	-6677
▁Within	-6678
▁adieus	-6679
▁advert	-6680
▁afloat	-6681
▁amends	-6682
▁annual	-6683
▁ardent	-6684
▁banish	-6685
▁barely	-6686
▁bathed	-6687
▁beside	-6688
▁bewild	-6689
▁blains	-6690
▁blinds	-6691
▁bodies	-6692
▁branch	-6693
▁burden	-6694
▁chairs	-6695
▁clerks	-6696
▁closet	-6697
▁clothe	-6698
▁clumsy	-6699
acc	-6700
awd	-6701
More	-6702
acle	-6703
bial	-6704
cart	-6705
xuri	-6706
▁Ste	-6707
▁nar	-6708
▁rhe	-6709
▁rou	-6710
▁rul	-6711
▁vou	-6712
bable	-6713
eomen	-6714
icted	-6715
ights	-6716
maids	-6717
oughs	-6718
uxuri	-6719
▁Song	-6720
▁dawd	-6721
▁pear	-6722
▁pert	-6723
▁pure	-6724
▁sele	-6725
▁trun	-6726
▁wand	-6727
▁wary	-6728
aclean	-6729
alance	-6730
ashing	-6731
leable	-6732
onight	-6733
orting	-6734
ructed	-6735
▁Songs	-6736
▁bough	-6737
▁brave	-6738
▁dance	-6739
▁foreb	-6740
▁indis	-6741
▁indiv	-6742
▁lists	-6743
▁recap	-6744
▁reven	-6745
▁rheum	-6746
▁rouge	-6747
▁rules	-6748
▁vouch	-6749
▁withh	-6750
balance	-6751
ertness	-6752
reights	-6753
▁behold	-6754
▁betide	-6755
▁corpse	-6756
▁create	-6757
▁cruise	-6758
▁defend	-6759
▁defied	-6760
▁destru	-6761
▁dissol	-6762
▁divers	-6763
▁dressy	-6764
▁embold	-6765
▁encoun	-6766
▁ensure	-6767
▁envied	-6768
▁erring	-6769
▁fasten	-6770
▁forest	-6771
▁frames	-6772
▁frosts	-6773
▁frosty	-6774
▁gainer	-6775
▁gravel	-6776
▁groups	-6777
▁growth	-6778
▁hammer	-6779
▁hazard	-6780
▁heaped	-6781
▁hedges	-6782
▁herald	-6783
▁heyday	-6784
▁humili	-6785
▁hushed	-6786
▁immort	-6787
▁indeli	-6788
▁indisc	-6789
▁ingrat	-6790
▁injuri	-6791
▁insinc	-6792
▁judges	-6793
▁knight	-6794
▁linger	-6795
▁luxuri	-6796
▁market	-6797
▁merged	-6798
▁misses	-6799
.”—	-6800
iny	-6801
los	-6802
mak	-6803
Come	-6804
arts	-6805
ests	-6806
some	-6807
▁bul	-6808
▁sus	-6809
antic	-6810
dress	-6811
elled	-6812
guing	-6813
hings	-6814
isome	-6815
liest	-6816
llies	-6817
maker	-6818
orset	-6819
▁bulk	-6820
▁cott	-6821
▁exit	-6822
▁gold	-6823
▁litt	-6824
▁mans	-6825
▁mech	-6826
▁nois	-6827
▁youn	-6828
Elliot	-6829
arried	-6830
essant	-6831
esting	-6832
hogany	-6833
ollies	-6834
should	-6835
▁bulky	-6836
▁carts	-6837
▁fated	-6838
▁knife	-6839
▁noisy	-6840
▁overf	-6841
▁tresp	-6842
▁wheed	-6843
▁whine	-6844
▁younk	-6845
Married	-6846
losures	-6847
pposing	-6848
ulation	-6849
ulgence	-6850
▁Bridge	-6851
▁Dorset	-6852
▁archly	-6853
▁cottag	-6854
▁danced	-6855
▁guests	-6856
▁horrib	-6857
▁mechan	-6858
▁modify	-6859
▁multip	-6860
▁obtain	-6861
▁obtrus	-6862
▁overfl	-6863
▁pacify	-6864
▁paltry	-6865
▁physic	-6866
▁pitied	-6867
▁placid	-6868
▁plague	-6869
▁posted	-6870
▁poured	-6871
▁powder	-6872
▁prayer	-6873
▁predic	-6874
▁proteg	-6875
▁pursue	-6876
▁pushed	-6877
▁rector	-6878
▁redden	-6879
▁reduce	-6880
▁refres	-6881
▁refute	-6882
▁renter	-6883
▁resume	-6884
▁ribbon	-6885
▁riding	-6886
▁rubbed	-6887
▁rugged	-6888
▁rumble	-6889
▁rushed	-6890
▁screen	-6891
▁sedent	-6892
▁selves	-6893
▁shadow	-6894
▁shakes	-6895
▁sickly	-6896
▁sonnet	-6897
▁soothe	-6898
▁source	-6899
9,	-6900
gid	-6901
lim	-6902
sed	-6903
▁9,	-6904
▁Ev	-6905
▁Li	-6906
▁Se	-6907
door	-6908
mble	-6909
olks	-6910
raft	-6911
save	-6912
▁Bah	-6913
▁Bre	-6914
▁Sur	-6915
▁Var	-6916
▁emp	-6917
▁iss	-6918
▁nep	-6919
bound	-6920
ibule	-6921
ppose	-6922
seven	-6923
▁Call	-6924
▁Cons	-6925
▁Like	-6926
▁Seas	-6927
▁bend	-6928
▁chin	-6929
▁lect	-6930
▁mend	-6931
idable	-6932
liging	-6933
llable	-6934
rafted	-6935
ration	-6936
sports	-6937
▁Baham	-6938
▁Surpr	-6939
▁arise	-6940
▁broke	-6941
▁china	-6942
▁fatal	-6943
▁folks	-6944
▁issue	-6945
▁nephe	-6946
▁notic	-6947
▁rigid	-6948
▁shelf	-6949
▁shows	-6950
▁verse	-6951
terable	-6952
▁Bahama	-6953
▁Consid	-6954
▁Events	-6955
▁entang	-6956
▁forbad	-6957
▁indent	-6958
▁member	-6959
▁nephew	-6960
▁nursed	-6961
▁prelim	-6962
▁spoils	-6963
▁sports	-6964
▁sprang	-6965
▁square	-6966
▁squire	-6967
▁stares	-6968
▁starts	-6969
▁strait	-6970
▁stream	-6971
▁stupid	-6972
▁sweeps	-6973
▁switch	-6974
▁tastes	-6975
▁thread	-6976
▁tossed	-6977
▁transg	-6978
▁transl	-6979
▁treaty	-6980
▁trunks	-6981
▁truths	-6982
▁undevi	-6983
▁undone	-6984
▁unfeud	-6985
▁unforg	-6986
▁ungent	-6987
▁unhapp	-6988
▁unison	-6989
▁unsafe	-6990
▁unwear	-6991
▁unwill	-6992
▁unwise	-6993
▁urging	-6994
▁varied	-6995
▁verses	-6996
▁wisdom	-6997
▁wonted	-6998
▁yeomen	-6999
Ele	-7000
lve	-7001
Eleg	-7002
acul	-7003
lies	-7004
lvet	-7005
pple	-7006
riff	-7007
thri	-7008
uage	-7009
were	-7010
▁Cli	-7011
▁Ten	-7012
▁anc	-7013
▁dus	-7014
▁fel	-7015
▁ram	-7016
Happy	-7017
aited	-7018
ghing	-7019
illed	-7020
jacul	-7021
rison	-7022
▁Exce	-7023
▁alli	-7024
▁deed	-7025
▁dusk	-7026
▁misc	-7027
▁nuts	-7028
▁sold	-7029
▁yard	-7030
olland	-7031
oriety	-7032
remedi	-7033
ripple	-7034
thrift	-7035
ughing	-7036
urried	-7037
▁Clift	-7038
▁colon	-7039
▁evade	-7040
▁felow	-7041
▁lieve	-7042
▁oblig	-7043
▁ruins	-7044
▁strik	-7045
cepting	-7046
matters	-7047
ventful	-7048
▁Excell	-7049
▁ancest	-7050
▁baited	-7051
▁colonn	-7052
▁eighty	-7053
▁ejacul	-7054
▁equall	-7055
▁killed	-7056
▁newest	-7057
▁repaid	-7058
▁revers	-7059
▁unknow	-7060
▁velvet	-7061
Elegance	-7062
admitted	-7063
arecrows	-7064
assioned	-7065
asticity	-7066
atefully	-7067
aterials	-7068
attended	-7069
attering	-7070
breeding	-7071
changing	-7072
charging	-7073
cipitate	-7074
delusion	-7075
disposed	-7076
ducation	-7077
easterly	-7078
enditure	-7079
ertainty	-7080
essening	-7081
fficient	-7082
fortunes	-7083
herazade	-7084
iciously	-7085
impaired	-7086
improved	-7087
isitions	-7088
issioned	-7089
laughing	-7090
lenesses	-7091
licitous	-7092
lowering	-7093
ometimes	-7094
oncerted	-7095
ontented	-7096
ositions	-7097
ossessed	-7098
ountains	-7099
amt	-7100
cts	-7101
riv	-7102
str	-7103
▁AN	-7104
▁Ag	-7105
▁Sp	-7106
good	-7107
head	-7108
hers	-7109
long	-7110
rill	-7111
stra	-7112
▁ANN	-7113
▁Sat	-7114
▁ate	-7115
▁atm	-7116
▁mur	-7117
▁wri	-7118
armth	-7119
licts	-7120
▁ANNE	-7121
▁food	-7122
▁murm	-7123
▁silk	-7124
▁vest	-7125
armion	-7126
icense	-7127
ishers	-7128
strong	-7129
▁Again	-7130
▁Satur	-7131
▁Speed	-7132
▁allay	-7133
▁elude	-7134
▁kinds	-7135
▁quant	-7136
▁sixty	-7137
▁unriv	-7138
▁wrigg	-7139
Marmion	-7140
achines	-7141
inehead	-7142
onement	-7143
wishers	-7144
▁Always	-7145
▁Warmth	-7146
▁abstra	-7147
▁amount	-7148
▁atmosp	-7149
▁dances	-7150
▁dreamt	-7151
▁hollow	-7152
▁infuse	-7153
▁murmur	-7154
▁thrill	-7155
particul	-7156
pentered	-7157
petrated	-7158
reciproc	-7159
resently	-7160
ressibly	-7161
rincipal	-7162
shilling	-7163
shooting	-7164
sounding	-7165
speaking	-7166
unbridge	-7167
uodecimo	-7168
upboards	-7169
▁Anybody	-7170
▁Believe	-7171
▁Clifton	-7172
▁Dugdale	-7173
▁Herself	-7174
▁Islands	-7175
▁Knowing	-7176
▁Mediter	-7177
▁Molland	-7178
▁Nursing	-7179
▁Picture	-7180
▁Shocked	-7181
▁Spicers	-7182
▁Squares	-7183
▁Sundays	-7184
▁Suppose	-7185
▁Tatters	-7186
▁Towards	-7187
▁Western	-7188
▁admirer	-7189
▁admires	-7190
▁advance	-7191
▁adverse	-7192
▁affords	-7193
▁allayed	-7194
▁anguish	-7195
▁approve	-7196
▁attends	-7197
▁audible	-7198
▁audibly	-7199
:”	-7200
Ex	-7201
WM	-7202
nel	-7203
nex	-7204
raw	-7205
▁Fr	-7206
▁ug	-7207
ctri	-7208
ibed	-7209
lter	-7210
rain	-7211
rawl	-7212
▁Ber	-7213
▁asp	-7214
▁dry	-7215
▁tid	-7216
▁woe	-7217
Exact	-7218
ainly	-7219
amour	-7220
annel	-7221
aying	-7222
bibed	-7223
ctrif	-7224
hould	-7225
inety	-7226
nexed	-7227
▁1784	-7228
▁Berm	-7229
▁Sult	-7230
▁cash	-7231
▁cher	-7232
▁king	-7233
▁prey	-7234
▁robb	-7235
▁ugly	-7236
Should	-7237
ainter	-7238
alogue	-7239
mented	-7240
saying	-7241
▁1784,	-7242
▁Frank	-7243
▁grows	-7244
▁songs	-7245
▁wease	-7246
Exactly	-7247
▁(1818)	-7248
▁Bermud	-7249
▁Little	-7250
▁Ninety	-7251
▁Sultan	-7252
▁advise	-7253
▁aspect	-7254
▁gloomy	-7255
▁mainly	-7256
▁scrawl	-7257
▁solemn	-7258
▁weasel	-7259
ctrified	-7260
pprehens	-7261
▁Bermuda	-7262
▁annexed	-7263
▁attacks	-7264
▁avarice	-7265
▁balance	-7266
▁bawling	-7267
▁bespeak	-7268
▁boatmen	-7269
▁briefly	-7270
▁bruises	-7271
▁caprice	-7272
▁century	-7273
▁ceremon	-7274
▁channel	-7275
▁chatted	-7276
▁cherish	-7277
▁chooses	-7278
▁clamour	-7279
▁clearer	-7280
▁complic	-7281
▁couples	-7282
▁courtes	-7283
▁created	-7284
▁cripple	-7285
▁cutting	-7286
▁dangers	-7287
▁dawning	-7288
▁decides	-7289
▁defying	-7290
▁delayed	-7291
▁denoted	-7292
▁deplore	-7293
▁derived	-7294
▁descend	-7295
▁despair	-7296
▁destiny	-7297
▁destroy	-7298
▁discuss	-7299
bre	-7300
irr	-7301
anty	-7302
bted	-7303
each	-7304
eral	-7305
iast	-7306
ries	-7307
▁Man	-7308
▁hem	-7309
▁ost	-7310
antel	-7311
awing	-7312
bbots	-7313
icine	-7314
ittal	-7315
would	-7316
▁Make	-7317
▁curl	-7318
▁ends	-7319
▁exch	-7320
▁fick	-7321
▁lies	-7322
▁mirr	-7323
▁reve	-7324
angest	-7325
ceived	-7326
iberal	-7327
nawing	-7328
▁Sound	-7329
▁abbre	-7330
▁clock	-7331
▁dears	-7332
▁disli	-7333
▁inher	-7334
▁marsh	-7335
▁rever	-7336
eaching	-7337
grounds	-7338
ilments	-7339
▁Ibbots	-7340
▁famous	-7341
▁hemmed	-7342
▁insert	-7343
▁mantel	-7344
▁misuse	-7345
▁ostent	-7346
▁pierce	-7347
▁revell	-7348
▁scanty	-7349
▁social	-7350
▁unvary	-7351
▁Whoever	-7352
▁dowager	-7353
▁dullest	-7354
▁elevate	-7355
▁endured	-7356
▁enforce	-7357
▁ennoble	-7358
▁ensured	-7359
▁entitle	-7360
▁eternal	-7361
▁excuses	-7362
▁fainter	-7363
▁feature	-7364
▁fervour	-7365
▁fishing	-7366
▁flowing	-7367
▁flushed	-7368
▁follies	-7369
▁forebod	-7370
▁fortify	-7371
▁fraught	-7372
▁frights	-7373
▁gadding	-7374
▁gaining	-7375
▁glanced	-7376
▁glasses	-7377
▁glimpse	-7378
▁glories	-7379
▁gnawing	-7380
▁grandch	-7381
▁granted	-7382
▁grossly	-7383
▁guarded	-7384
▁harmony	-7385
▁heavily	-7386
▁hideous	-7387
▁hunting	-7388
▁imbibed	-7389
▁inadver	-7390
▁inconst	-7391
▁individ	-7392
▁indulge	-7393
▁inexhau	-7394
▁informs	-7395
▁injured	-7396
▁inquiry	-7397
▁inspire	-7398
▁issuing	-7399
;)	-7400
ew	-7401
Fam	-7402
bow	-7403
eni	-7404
ics	-7405
yal	-7406
zie	-7407
▁od	-7408
Gout	-7409
arre	-7410
ersu	-7411
fume	-7412
liam	-7413
nant	-7414
song	-7415
till	-7416
▁15,	-7417
▁20,	-7418
▁Few	-7419
arrel	-7420
enius	-7421
enzie	-7422
issal	-7423
upied	-7424
yalty	-7425
▁Came	-7426
▁Prom	-7427
▁acre	-7428
▁cell	-7429
▁conj	-7430
▁lord	-7431
▁noon	-7432
▁plea	-7433
▁sank	-7434
▁seas	-7435
▁thro	-7436
Family	-7437
barrel	-7438
ifting	-7439
missal	-7440
stible	-7441
tering	-7442
▁1814)	-7443
▁Forty	-7444
▁Persu	-7445
▁adopt	-7446
▁doted	-7447
▁elbow	-7448
▁feign	-7449
▁gloss	-7450
▁recei	-7451
▁relat	-7452
▁sheet	-7453
▁speci	-7454
ccupied	-7455
ersonal	-7456
winging	-7457
▁cellar	-7458
▁forego	-7459
▁genius	-7460
▁glossy	-7461
▁harass	-7462
▁odious	-7463
▁superf	-7464
▁taught	-7465
▁theory	-7466
▁throat	-7467
▁unsoft	-7468
ackenzie	-7469
liaments	-7470
occupied	-7471
untering	-7472
▁cellars	-7473
▁dispens	-7474
▁disturb	-7475
▁jesting	-7476
▁judging	-7477
▁kingdom	-7478
▁languor	-7479
▁license	-7480
▁lifting	-7481
▁lighted	-7482
▁lodgers	-7483
▁loyalty	-7484
▁madness	-7485
▁mankind	-7486
▁mansion	-7487
▁marking	-7488
▁marshal	-7489
▁medical	-7490
▁memoirs	-7491
▁miscond	-7492
▁mixture	-7493
▁mourner	-7494
▁musical	-7495
▁nosegay	-7496
▁obscure	-7497
▁operate	-7498
▁opposer	-7499
.)	-7500
.;	-7501
;’	-7502
?)	-7503
Ab	-7504
_.	-7505
arc	-7506
eer	-7507
que	-7508
aled	-7509
irst	-7510
kmen	-7511
memb	-7512
tely	-7513
▁Jan	-7514
▁por	-7515
▁wra	-7516
About	-7517
ables	-7518
alous	-7519
ardly	-7520
ength	-7521
icate	-7522
nally	-7523
spelt	-7524
▁1800	-7525
▁Janu	-7526
▁beat	-7527
▁exhi	-7528
▁sarc	-7529
▁shor	-7530
▁suav	-7531
▁uses	-7532
▁weat	-7533
always	-7534
inkets	-7535
lihood	-7536
odings	-7537
queath	-7538
ucting	-7539
▁1800)	-7540
▁First	-7541
▁brown	-7542
▁exhib	-7543
▁queer	-7544
idmouth	-7545
▁Hardly	-7546
▁Scenes	-7547
▁artist	-7548
▁equals	-7549
▁expedi	-7550
▁finale	-7551
▁justly	-7552
▁legacy	-7553
▁length	-7554
▁poring	-7555
▁scient	-7556
▁sealed	-7557
▁tables	-7558
andalous	-7559
educting	-7560
membered	-7561
▁January	-7562
▁milkmen	-7563
▁pattens	-7564
▁payment	-7565
▁periods	-7566
▁placing	-7567
▁plainer	-7568
▁plainly	-7569
▁plaster	-7570
▁ploughs	-7571
▁plunged	-7572
▁popular	-7573
▁precaut	-7574
▁preside	-7575
▁prevail	-7576
▁provide	-7577
▁publish	-7578
▁rapidly	-7579
▁rapture	-7580
▁recapit	-7581
▁receipt	-7582
▁recital	-7583
▁refrain	-7584
▁release	-7585
▁relinqu	-7586
▁remorse	-7587
▁renewal	-7588
▁renting	-7589
▁reports	-7590
▁retreat	-7591
▁revenge	-7592
▁reverie	-7593
▁revolut	-7594
▁ribbons	-7595
▁romance	-7596
▁rousing	-7597
▁rubbish	-7598
▁rupture	-7599
6;	-7600
MY	-7601
ys	-7602
mod	-7603
rol	-7604
whe	-7605
▁16	-7606
Once	-7607
answ	-7608
inis	-7609
izes	-7610
need	-7611
rawn	-7612
whel	-7613
▁16,	-7614
▁sin	-7615
▁sum	-7616
▁tro	-7617
otous	-7618
urned	-7619
▁gift	-7620
▁hale	-7621
▁sell	-7622
▁tawn	-7623
▁toys	-7624
▁west	-7625
apable	-7626
arding	-7627
idents	-7628
modern	-7629
nation	-7630
▁1806;	-7631
▁Finis	-7632
▁Marys	-7633
▁brawn	-7634
▁drops	-7635
▁fling	-7636
▁south	-7637
▁tawny	-7638
needles	-7639
uncture	-7640
whelmed	-7641
▁histor	-7642
▁manage	-7643
▁reprie	-7644
▁sinner	-7645
▁sturdy	-7646
▁swears	-7647
▁unansw	-7648
agnation	-7649
xception	-7650
▁assizes	-7651
▁control	-7652
▁darting	-7653
▁dashing	-7654
▁foresaw	-7655
▁hesitat	-7656
▁riotous	-7657
▁scolded	-7658
▁seating	-7659
▁secrets	-7660
▁seizure	-7661
▁sequest	-7662
▁sharing	-7663
▁shelter	-7664
▁shelves	-7665
▁sheriff	-7666
▁sheweth	-7667
▁shifted	-7668
▁shining	-7669
▁shorter	-7670
▁shyness	-7671
▁sighing	-7672
▁simplet	-7673
▁skilful	-7674
▁slender	-7675
▁soldier	-7676
▁solitar	-7677
▁spurned	-7678
▁startle	-7679
▁steeper	-7680
▁studied	-7681
▁suavity	-7682
▁subdued	-7683
▁submiss	-7684
▁suffici	-7685
▁symptom	-7686
▁tearing	-7687
▁teazing	-7688
▁tempers	-7689
▁testify	-7690
▁tidings	-7691
▁toiling	-7692
▁trained	-7693
▁treason	-7694
▁tressel	-7695
▁trifled	-7696
▁trodden	-7697
▁unheard	-7698
▁unlucky	-7699
bro	-7700
why	-7701
ache	-7702
alse	-7703
bell	-7704
fare	-7705
ites	-7706
itle	-7707
▁dig	-7708
▁rut	-7709
ifier	-7710
ivill	-7711
money	-7712
pleas	-7713
▁1789	-7714
▁chim	-7715
▁mood	-7716
▁unsh	-7717
▁unut	-7718
▁welf	-7719
broken	-7720
emning	-7721
ivilly	-7722
▁1789;	-7723
▁breth	-7724
▁dimin	-7725
▁disqu	-7726
▁false	-7727
▁inure	-7728
▁mortg	-7729
▁spoil	-7730
▁title	-7731
assumed	-7732
astened	-7733
fitable	-7734
throats	-7735
▁captiv	-7736
▁hither	-7737
▁loving	-7738
▁record	-7739
▁repeat	-7740
▁speedy	-7741
▁thanks	-7742
ignantly	-7743
pleasure	-7744
▁assuage	-7745
▁blinded	-7746
▁chimney	-7747
▁civilly	-7748
▁digress	-7749
▁examine	-7750
▁gratify	-7751
▁jumping	-7752
▁mirrors	-7753
▁printer	-7754
▁remnant	-7755
▁robbing	-7756
▁unpersu	-7757
▁unprodu	-7758
▁unshack	-7759
▁urgency	-7760
▁vacanci	-7761
▁waggons	-7762
▁warning	-7763
▁watches	-7764
▁wealthy	-7765
▁wearied	-7766
▁welfare	-7767
▁winters	-7768
▁workmen	-7769
▁wrapped	-7770
▁younker	-7771
Something	-7772
abilities	-7773
advertise	-7774
agreement	-7775
alterable	-7776
astically	-7777
auntingly	-7778
avourable	-7779
beckoning	-7780
eebleness	-7781
ethodical	-7782
gressions	-7783
important	-7784
ingenuous	-7785
meditated	-7786
morandums	-7787
nowledged	-7788
onstrance	-7789
perplexed	-7790
principal	-7791
regulated	-7792
risonment	-7793
sometimes	-7794
somewhere	-7795
supposing	-7796
ufficient	-7797
uspicious	-7798
veniently	-7799
dy	-7800
—(	-7801
▁Z	-7802
1.”	-7803
ins	-7804
91.”	-7805
iddy	-7806
poor	-7807
rier	-7808
shop	-7809
▁Too	-7810
ealth	-7811
leven	-7812
onent	-7813
shore	-7814
vered	-7815
▁Some	-7816
▁crit	-7817
▁quie	-7818
▁wont	-7819
Louisa	-7820
eleven	-7821
ettles	-7822
laimed	-7823
orable	-7824
wealth	-7825
▁giddy	-7826
▁reins	-7827
▁teach	-7828
▁wrink	-7829
itution	-7830
ulating	-7831
viously	-7832
▁1791.”	-7833
▁dispel	-7834
▁drinks	-7835
▁horsep	-7836
▁lesson	-7837
▁offend	-7838
▁toward	-7839
▁usages	-7840
tempered	-7841
▁Domingo	-7842
▁barrier	-7843
▁bookish	-7844
▁existed	-7845
▁humours	-7846
▁intrude	-7847
▁nettles	-7848
▁quieter	-7849
▁rumours	-7850
▁teasing	-7851
▁varying	-7852
Principal	-7853
fashioned	-7854
stitution	-7855
▁Anything	-7856
▁Atkinson	-7857
▁Atlantic	-7858
▁Cheshire	-7859
▁Consider	-7860
▁February	-7861
▁Freckles	-7862
▁Governor	-7863
▁Grierson	-7864
▁Hitherto	-7865
▁Journeys	-7866
▁KELLYNCH	-7867
▁Minehead	-7868
▁Prettier	-7869
▁Reported	-7870
▁Saturday	-7871
▁Sidmouth	-7872
▁Situated	-7873
▁accustom	-7874
▁actuated	-7875
▁advanced	-7876
▁affluent	-7877
▁affronts	-7878
▁againsts	-7879
▁allusion	-7880
▁ancestry	-7881
▁ascended	-7882
▁assuring	-7883
▁autumnal	-7884
▁avoiding	-7885
▁banished	-7886
▁barouche	-7887
▁beauties	-7888
▁bequeath	-7889
▁bitterly	-7890
▁blighted	-7891
▁blinding	-7892
▁blossoms	-7893
▁blunders	-7894
▁boasting	-7895
▁brethren	-7896
▁broadest	-7897
▁bursting	-7898
▁captures	-7899
Al	-7900
—!	-7901
’.	-7902
cot	-7903
etu	-7904
ois	-7905
rep	-7906
rey	-7907
zed	-7908
▁HA	-7909
Pret	-7910
arge	-7911
edom	-7912
high	-7913
▁	-7914
e	-7915
t	-7916
a	-7917
o	-7918
n	-7919
i	-7920
h	-7921
s	-7922
r	-7923
d	-7924
l	-7925
u	-7926
m	-7927
c	-7928
w	-7929
f	-7930
y	-7931
g	-7932
,	-7933
p	-7934
b	-7935
v	-7936
.	-7937
k	-7938
I	-7939
;	-7940
M	-7941
A	-7942
C	-7943
“	-7944
”	-7945
H	-7946
S	-7947
T	-7948
W	-7949
’	-7950
x	-7951
q	-7952
E	-7953
L	-7954
B	-7955
j	-7956
!	-7957
-	-7958
R	-7959
?	-7960
z	-7961
P	-7962
—	-7963
Y	-7964
:	-7965
N	-7966
O	-7967
_	-7968
D	-7969
U	-7970
K	-7971
(	-7972
)	-7973
F	-7974
G	-7975
X	-7976
V	-7977
‘	-7978
J	-7979
1	-7980
8	-7981
0	-7982
7	-7983
&	-7984
5	-7985
9	-7986
Q	-7987
6	-7988
2	-7989
4	-7990
œ	-7991
3	-7992
Z	-7993
é	-7994
